/*
 * Copyright (c) 2026 EdgeImpulse Inc.
 *
 * Generated by Edge Impulse and licensed under the applicable Edge Impulse
 * Terms of Service. Community and Professional Terms of Service
 * (https://edgeimpulse.com/legal/terms-of-service) or Enterprise Terms of
 * Service (https://edgeimpulse.com/legal/enterprise-terms-of-service),
 * according to your product plan subscription (the “License”).
 *
 * This software, documentation and other associated files (collectively referred
 * to as the “Software”) is a single SDK variation generated by the Edge Impulse
 * platform and requires an active paid Edge Impulse subscription to use this
 * Software for any purpose.
 *
 * You may NOT use this Software unless you have an active Edge Impulse subscription
 * that meets the eligibility requirements for the applicable License, subject to
 * your full and continued compliance with the terms and conditions of the License,
 * including without limitation any usage restrictions under the applicable License.
 *
 * If you do not have an active Edge Impulse product plan subscription, or if use
 * of this Software exceeds the usage limitations of your Edge Impulse product plan
 * subscription, you are not permitted to use this Software and must immediately
 * delete and erase all copies of this Software within your control or possession.
 * Edge Impulse reserves all rights and remedies available to enforce its rights.
 *
 * Unless required by applicable law or agreed to in writing, the Software is
 * distributed on an "AS IS" BASIS, WITHOUT WARRANTIES OR CONDITIONS OF ANY KIND,
 * either express or implied. See the License for the specific language governing
 * permissions, disclaimers and limitations under the License.
 */

#ifndef _EI_CLASSIFIER_TFLITE_LEARN_923005_3_H_
#define _EI_CLASSIFIER_TFLITE_LEARN_923005_3_H_

#define EI_CLASSIFIER_TFLITE_LEARN_923005_3_ARENA_SIZE     9817
const size_t tflite_learn_923005_3_arena_size = 9817;

#if defined __GNUC__
#define ALIGN(X) __attribute__((aligned(X)))
#elif defined _MSC_VER
#define ALIGN(X) __declspec(align(X))
#elif defined __TASKING__
#define ALIGN(X) __align(X)
#else
#define ALIGN(X)
#endif

#if defined(EI_MODEL_SECTION) && (defined(__GNUC__) || defined(__clang__))
#define STRINGIZE(x) #x
#define STRINGIZE_VALUE_OF(x) STRINGIZE(x)
#define MODEL_SECTION(X) __attribute__((section(STRINGIZE_VALUE_OF(X))))
#else
#define MODEL_SECTION(X)
#endif


MODEL_SECTION(EI_MODEL_SECTION) ALIGN(16) const unsigned char tflite_learn_923005_3[] = {
  0x20, 0x00, 0x00, 0x00, 0x54, 0x46, 0x4c, 0x33, 0x00, 0x00, 0x00, 0x00,
  0x14, 0x00, 0x20, 0x00, 0x1c, 0x00, 0x18, 0x00, 0x14, 0x00, 0x10, 0x00,
  0x0c, 0x00, 0x00, 0x00, 0x08, 0x00, 0x04, 0x00, 0x14, 0x00, 0x00, 0x00,
  0x1c, 0x00, 0x00, 0x00, 0x8c, 0x00, 0x00, 0x00, 0xe4, 0x00, 0x00, 0x00,
  0xf4, 0x11, 0x00, 0x00, 0x04, 0x12, 0x00, 0x00, 0xe4, 0x29, 0x00, 0x00,
  0x03, 0x00, 0x00, 0x00, 0x01, 0x00, 0x00, 0x00, 0x10, 0x00, 0x00, 0x00,
  0x00, 0x00, 0x0a, 0x00, 0x10, 0x00, 0x0c, 0x00, 0x08, 0x00, 0x04, 0x00,
  0x0a, 0x00, 0x00, 0x00, 0x0c, 0x00, 0x00, 0x00, 0x1c, 0x00, 0x00, 0x00,
  0x3c, 0x00, 0x00, 0x00, 0x0f, 0x00, 0x00, 0x00, 0x73, 0x65, 0x72, 0x76,
  0x69, 0x6e, 0x67, 0x5f, 0x64, 0x65, 0x66, 0x61, 0x75, 0x6c, 0x74, 0x00,
  0x01, 0x00, 0x00, 0x00, 0x04, 0x00, 0x00, 0x00, 0x9c, 0xff, 0xff, 0xff,
  0x1e, 0x00, 0x00, 0x00, 0x04, 0x00, 0x00, 0x00, 0x08, 0x00, 0x00, 0x00,
  0x6f, 0x75, 0x74, 0x70, 0x75, 0x74, 0x5f, 0x30, 0x00, 0x00, 0x00, 0x00,
  0x01, 0x00, 0x00, 0x00, 0x04, 0x00, 0x00, 0x00, 0xd6, 0xed, 0xff, 0xff,
  0x04, 0x00, 0x00, 0x00, 0x01, 0x00, 0x00, 0x00, 0x78, 0x00, 0x00, 0x00,
  0x02, 0x00, 0x00, 0x00, 0x34, 0x00, 0x00, 0x00, 0x04, 0x00, 0x00, 0x00,
  0xdc, 0xff, 0xff, 0xff, 0x21, 0x00, 0x00, 0x00, 0x04, 0x00, 0x00, 0x00,
  0x13, 0x00, 0x00, 0x00, 0x43, 0x4f, 0x4e, 0x56, 0x45, 0x52, 0x53, 0x49,
  0x4f, 0x4e, 0x5f, 0x4d, 0x45, 0x54, 0x41, 0x44, 0x41, 0x54, 0x41, 0x00,
  0x08, 0x00, 0x0c, 0x00, 0x08, 0x00, 0x04, 0x00, 0x08, 0x00, 0x00, 0x00,
  0x20, 0x00, 0x00, 0x00, 0x04, 0x00, 0x00, 0x00, 0x13, 0x00, 0x00, 0x00,
  0x6d, 0x69, 0x6e, 0x5f, 0x72, 0x75, 0x6e, 0x74, 0x69, 0x6d, 0x65, 0x5f,
  0x76, 0x65, 0x72, 0x73, 0x69, 0x6f, 0x6e, 0x00, 0x22, 0x00, 0x00, 0x00,
  0x0c, 0x11, 0x00, 0x00, 0x04, 0x11, 0x00, 0x00, 0xe4, 0x10, 0x00, 0x00,
  0xc4, 0x10, 0x00, 0x00, 0xa4, 0x10, 0x00, 0x00, 0x84, 0x10, 0x00, 0x00,
  0x64, 0x10, 0x00, 0x00, 0x44, 0x10, 0x00, 0x00, 0x2c, 0x10, 0x00, 0x00,
  0x04, 0x10, 0x00, 0x00, 0xa4, 0x0e, 0x00, 0x00, 0x74, 0x0e, 0x00, 0x00,
  0xe4, 0x0c, 0x00, 0x00, 0x94, 0x0c, 0x00, 0x00, 0x84, 0x06, 0x00, 0x00,
  0xf4, 0x05, 0x00, 0x00, 0x04, 0x01, 0x00, 0x00, 0xfc, 0x00, 0x00, 0x00,
  0xf4, 0x00, 0x00, 0x00, 0xec, 0x00, 0x00, 0x00, 0xe4, 0x00, 0x00, 0x00,
  0xdc, 0x00, 0x00, 0x00, 0xd4, 0x00, 0x00, 0x00, 0xcc, 0x00, 0x00, 0x00,
  0xc4, 0x00, 0x00, 0x00, 0xbc, 0x00, 0x00, 0x00, 0xb4, 0x00, 0x00, 0x00,
  0xac, 0x00, 0x00, 0x00, 0xa4, 0x00, 0x00, 0x00, 0x9c, 0x00, 0x00, 0x00,
  0x94, 0x00, 0x00, 0x00, 0x8c, 0x00, 0x00, 0x00, 0x6c, 0x00, 0x00, 0x00,
  0x04, 0x00, 0x00, 0x00, 0xce, 0xee, 0xff, 0xff, 0x04, 0x00, 0x00, 0x00,
  0x58, 0x00, 0x00, 0x00, 0x0c, 0x00, 0x00, 0x00, 0x08, 0x00, 0x0e, 0x00,
  0x08, 0x00, 0x04, 0x00, 0x08, 0x00, 0x00, 0x00, 0x10, 0x00, 0x00, 0x00,
  0x28, 0x00, 0x00, 0x00, 0x00, 0x00, 0x06, 0x00, 0x08, 0x00, 0x04, 0x00,
  0x06, 0x00, 0x00, 0x00, 0x04, 0x00, 0x00, 0x00, 0x01, 0x00, 0x00, 0x00,
  0xeb, 0x03, 0x00, 0x00, 0x00, 0x00, 0x0a, 0x00, 0x10, 0x00, 0x0c, 0x00,
  0x08, 0x00, 0x04, 0x00, 0x0a, 0x00, 0x00, 0x00, 0x03, 0x00, 0x00, 0x00,
  0x02, 0x00, 0x00, 0x00, 0x04, 0x00, 0x00, 0x00, 0x06, 0x00, 0x00, 0x00,
  0x32, 0x2e, 0x31, 0x31, 0x2e, 0x31, 0x00, 0x00, 0x32, 0xef, 0xff, 0xff,
  0x04, 0x00, 0x00, 0x00, 0x10, 0x00, 0x00, 0x00, 0x31, 0x2e, 0x31, 0x34,
  0x2e, 0x30, 0x00, 0x00, 0x00, 0x00, 0x00, 0x00, 0x00, 0x00, 0x00, 0x00,
  0xbc, 0xd8, 0xff, 0xff, 0xc0, 0xd8, 0xff, 0xff, 0xc4, 0xd8, 0xff, 0xff,
  0xc8, 0xd8, 0xff, 0xff, 0xcc, 0xd8, 0xff, 0xff, 0xd0, 0xd8, 0xff, 0xff,
  0xd4, 0xd8, 0xff, 0xff, 0xd8, 0xd8, 0xff, 0xff, 0xdc, 0xd8, 0xff, 0xff,
  0xe0, 0xd8, 0xff, 0xff, 0xe4, 0xd8, 0xff, 0xff, 0xe8, 0xd8, 0xff, 0xff,
  0xec, 0xd8, 0xff, 0xff, 0xf0, 0xd8, 0xff, 0xff, 0xf4, 0xd8, 0xff, 0xff,
  0x8a, 0xef, 0xff, 0xff, 0x04, 0x00, 0x00, 0x00, 0xe0, 0x04, 0x00, 0x00,
  0xb3, 0x81, 0xb9, 0x8d, 0xf4, 0x25, 0x08, 0xfe, 0xfd, 0xa6, 0xf0, 0x52,
  0xe8, 0xbf, 0x2b, 0xf8, 0x3b, 0x76, 0xf8, 0x30, 0x43, 0x53, 0x0e, 0x3d,
  0x5b, 0x69, 0xeb, 0x35, 0x07, 0x58, 0x0c, 0x09, 0x1b, 0x71, 0x65, 0x3c,
  0x4f, 0x34, 0xf0, 0xbc, 0x81, 0xbc, 0x2f, 0x0b, 0x3f, 0xd8, 0xca, 0x9d,
  0x0b, 0x35, 0x03, 0xef, 0x00, 0xf3, 0xdf, 0xe2, 0xfc, 0x12, 0xa3, 0x07,
  0xa0, 0xc9, 0x05, 0x4a, 0xc3, 0x41, 0x3b, 0xe5, 0xc7, 0xa5, 0xd1, 0xa3,
  0x12, 0xea, 0xd2, 0x1f, 0xfc, 0x2e, 0x0e, 0xf4, 0xfc, 0xd4, 0x23, 0xec,
  0x14, 0x03, 0xfa, 0x1b, 0x14, 0x81, 0x36, 0x07, 0xff, 0x07, 0xad, 0x20,
  0xd0, 0x1e, 0xe9, 0x0d, 0x18, 0xda, 0xaa, 0x47, 0x1b, 0xda, 0xc7, 0xec,
  0xea, 0x10, 0x37, 0x02, 0xdd, 0xdc, 0xcc, 0xfd, 0x30, 0xd2, 0x7f, 0x70,
  0xca, 0x2b, 0x47, 0x7b, 0x00, 0x4b, 0x29, 0x1a, 0x3d, 0x23, 0x12, 0x6e,
  0x3e, 0x3e, 0x23, 0x5f, 0x4b, 0x48, 0x42, 0x31, 0xdc, 0x08, 0xe1, 0x46,
  0xe3, 0x34, 0x28, 0x2a, 0x20, 0x00, 0x27, 0x27, 0xe2, 0xd5, 0xc3, 0x01,
  0x81, 0xd1, 0xe2, 0xdb, 0xe1, 0xd7, 0xd9, 0x22, 0xc2, 0x4a, 0x06, 0xc9,
  0x21, 0x91, 0xa6, 0xd4, 0xdd, 0xdf, 0xc8, 0xdf, 0x26, 0xf6, 0x05, 0xd9,
  0xe2, 0x13, 0xb3, 0x89, 0xe5, 0xe2, 0xaf, 0xe7, 0x19, 0xde, 0xe6, 0xfb,
  0xef, 0x50, 0xe8, 0x19, 0x29, 0x18, 0xf9, 0xd5, 0x18, 0x3d, 0x96, 0x7f,
  0xdd, 0x11, 0x0b, 0x00, 0x16, 0xff, 0x32, 0xd8, 0xd5, 0x11, 0x3d, 0xf2,
  0x0f, 0xbc, 0x12, 0xed, 0xf0, 0x00, 0xe7, 0x28, 0x0f, 0xd5, 0xf7, 0x30,
  0xfc, 0x36, 0xe7, 0xfa, 0xe0, 0xf0, 0x2e, 0x43, 0xa5, 0xd9, 0xdd, 0x0f,
  0x26, 0xa1, 0xef, 0xde, 0x61, 0x18, 0xd0, 0xcb, 0x29, 0xf8, 0xb7, 0xc2,
  0xf0, 0x09, 0x4f, 0x00, 0x0a, 0xac, 0x1f, 0x0d, 0x81, 0x38, 0x09, 0xaa,
  0xc8, 0xcd, 0xf3, 0x23, 0x35, 0x38, 0x0d, 0xb6, 0xff, 0x4f, 0x35, 0xc9,
  0xdd, 0xff, 0x08, 0x2d, 0x14, 0x43, 0xec, 0x94, 0xbc, 0xe7, 0xf6, 0xcb,
  0x17, 0x39, 0x39, 0x23, 0x0f, 0x03, 0xbd, 0xdb, 0x42, 0x42, 0x2a, 0x81,
  0xc7, 0xa5, 0x8f, 0xe4, 0xed, 0x0d, 0x0c, 0x22, 0x02, 0x14, 0xda, 0xff,
  0xb6, 0xe3, 0xdc, 0xba, 0xfa, 0xde, 0xf9, 0xd1, 0x24, 0x2e, 0x4b, 0xaf,
  0x0e, 0xb9, 0xd1, 0x81, 0xc0, 0x08, 0xfa, 0x0a, 0xdf, 0xc2, 0x7e, 0xd9,
  0xf2, 0x07, 0xa7, 0xc0, 0x85, 0xaa, 0xca, 0x1b, 0x07, 0x29, 0xd8, 0x25,
  0x18, 0xdd, 0xfa, 0x81, 0x1a, 0x10, 0xe8, 0x50, 0xfd, 0xf8, 0xde, 0x12,
  0xe8, 0x2d, 0xdf, 0x10, 0x85, 0xb8, 0x1c, 0xe0, 0x0e, 0xff, 0x16, 0x1c,
  0x05, 0x2f, 0x00, 0xfe, 0x32, 0xe3, 0xca, 0x93, 0x19, 0xf6, 0xc8, 0x15,
  0xf4, 0xae, 0xfe, 0x20, 0xf3, 0xd9, 0xf8, 0xcc, 0x56, 0xd6, 0x84, 0x67,
  0x2b, 0x1a, 0x2c, 0x9c, 0x23, 0xce, 0xe6, 0xe6, 0x91, 0x71, 0x0f, 0xef,
  0x52, 0x1b, 0xe0, 0x26, 0xf3, 0x11, 0xb7, 0xfd, 0xfa, 0xf9, 0xf7, 0x6a,
  0x7f, 0x3f, 0xdf, 0x45, 0x07, 0x12, 0xaf, 0x22, 0x09, 0x81, 0xc9, 0x03,
  0x08, 0x0a, 0x03, 0x03, 0x02, 0xe4, 0xe5, 0xf9, 0x0a, 0x0b, 0x91, 0x43,
  0x47, 0x14, 0xe8, 0xec, 0xe1, 0x22, 0x03, 0x2d, 0x41, 0x28, 0x1b, 0xb4,
  0xfc, 0x0c, 0x18, 0xe0, 0xcc, 0xd8, 0xfd, 0x23, 0x1d, 0xf9, 0xd9, 0x01,
  0xba, 0x1d, 0xf2, 0x06, 0xdb, 0xf7, 0x0c, 0x08, 0x04, 0x0c, 0x08, 0xf5,
  0xfc, 0x10, 0x34, 0xfe, 0x01, 0x1a, 0x2c, 0x14, 0x0a, 0x06, 0xe6, 0x0b,
  0xfb, 0xf1, 0x81, 0x0a, 0xe7, 0x0d, 0x1c, 0x14, 0x01, 0x02, 0xfa, 0xf7,
  0x13, 0x14, 0x24, 0xb8, 0x32, 0x15, 0x14, 0x33, 0x19, 0xf1, 0x08, 0xf0,
  0x19, 0x16, 0xf0, 0xe2, 0xea, 0x25, 0x1b, 0xed, 0x26, 0x3a, 0x19, 0xdd,
  0x18, 0x28, 0x14, 0xf1, 0xf0, 0x81, 0x30, 0xd0, 0xf3, 0x40, 0x36, 0xda,
  0xed, 0xc4, 0x2e, 0xfa, 0x0f, 0xd7, 0x51, 0x0a, 0x24, 0xdf, 0x02, 0xf7,
  0xef, 0xb6, 0xe9, 0x08, 0x08, 0x0b, 0x1f, 0x41, 0x91, 0x27, 0x6d, 0x50,
  0x58, 0x3b, 0xf9, 0x28, 0x38, 0x3a, 0xea, 0xc9, 0xac, 0xcd, 0x59, 0xb6,
  0x8f, 0xba, 0x81, 0xb6, 0xd7, 0x2e, 0x21, 0x27, 0xe2, 0x33, 0x81, 0xc8,
  0x63, 0x5b, 0xc6, 0xcb, 0x00, 0x5e, 0xe2, 0xc9, 0xba, 0xf0, 0xfa, 0x9b,
  0xeb, 0x07, 0x21, 0x1f, 0x0e, 0xd3, 0x2a, 0x0a, 0x63, 0xde, 0x37, 0x35,
  0xe1, 0xa0, 0xf4, 0x09, 0xfd, 0xd8, 0xda, 0x3d, 0x26, 0x44, 0xf7, 0xb8,
  0xa6, 0x2a, 0x22, 0xf4, 0xe5, 0x1b, 0xdf, 0x31, 0x01, 0x08, 0xc1, 0x66,
  0xb6, 0xf1, 0x1e, 0x21, 0x24, 0xc4, 0x21, 0xe6, 0x3a, 0xd7, 0xf5, 0x98,
  0x7f, 0xda, 0x26, 0x35, 0xee, 0xfb, 0xb9, 0x09, 0xec, 0x20, 0xcd, 0x00,
  0xc5, 0x62, 0xc5, 0xf9, 0xde, 0x26, 0x57, 0x44, 0x0e, 0x0c, 0x13, 0x12,
  0x17, 0x22, 0x29, 0xe7, 0xc1, 0xff, 0xf9, 0x11, 0xdc, 0xf6, 0x0e, 0x4c,
  0x26, 0x14, 0x27, 0x06, 0xef, 0xa7, 0x7f, 0x1b, 0xec, 0xad, 0xcd, 0xfd,
  0xd4, 0x39, 0x22, 0xc0, 0x9c, 0xbf, 0xa0, 0x46, 0xf4, 0x50, 0x5d, 0x19,
  0xe8, 0x16, 0x52, 0x42, 0x1a, 0x3a, 0xf1, 0x3d, 0x39, 0x1b, 0x19, 0xb7,
  0xa6, 0x23, 0x24, 0xfa, 0xf6, 0xf6, 0xd6, 0xf0, 0xa8, 0xae, 0xcc, 0xbd,
  0x81, 0x14, 0x0d, 0xa4, 0xc0, 0xe6, 0x09, 0x25, 0x0d, 0x0b, 0x43, 0x14,
  0x33, 0x60, 0x21, 0x1c, 0x14, 0x5a, 0x16, 0x0e, 0x3a, 0x0e, 0x21, 0x51,
  0x18, 0x0b, 0x7f, 0x99, 0x53, 0x46, 0x1f, 0x5b, 0x96, 0x00, 0xfc, 0x21,
  0x31, 0xea, 0xf1, 0x4b, 0xcd, 0x37, 0x7e, 0xae, 0x39, 0x9d, 0x55, 0xce,
  0x37, 0x79, 0x03, 0xd3, 0xdd, 0xc4, 0xd5, 0x04, 0x1d, 0x1b, 0x1f, 0x02,
  0x05, 0xb0, 0x37, 0x43, 0x1b, 0x0f, 0x03, 0xb5, 0xfe, 0x18, 0x24, 0x0b,
  0xfe, 0xec, 0x81, 0xf9, 0x25, 0x4a, 0x48, 0x03, 0xcc, 0xf2, 0x01, 0x19,
  0x39, 0x20, 0x17, 0xb3, 0xdc, 0xdc, 0x0d, 0x30, 0xff, 0xc7, 0xee, 0xf0,
  0xff, 0x29, 0xf1, 0x06, 0x81, 0x2a, 0xfc, 0xf2, 0xf1, 0x01, 0xdb, 0xec,
  0xe8, 0x0a, 0x11, 0x08, 0xf0, 0xb9, 0x18, 0x05, 0x1d, 0x06, 0x1d, 0xb6,
  0x05, 0xfa, 0xf9, 0x2f, 0xf5, 0xf3, 0x18, 0x0a, 0xf2, 0x11, 0x05, 0x0c,
  0x03, 0xf0, 0xfa, 0x14, 0x21, 0x00, 0x05, 0x55, 0x28, 0xfb, 0xee, 0x17,
  0x16, 0x05, 0xff, 0xdc, 0xd8, 0xd4, 0x1c, 0x0f, 0x81, 0xe1, 0xf7, 0xf2,
  0xec, 0xf1, 0x01, 0x0c, 0x3f, 0x1d, 0xfc, 0xe0, 0xea, 0x9a, 0xb9, 0x33,
  0xcd, 0xf5, 0x1e, 0x10, 0x00, 0x15, 0x09, 0xd3, 0xfe, 0xd8, 0xa7, 0x81,
  0x15, 0xcf, 0xdc, 0x3d, 0xf7, 0xe3, 0x05, 0x14, 0xe3, 0xbf, 0x0d, 0xa5,
  0x89, 0xb5, 0xdf, 0xf7, 0xf7, 0xf2, 0x07, 0x1e, 0xe4, 0xee, 0x05, 0xcd,
  0x73, 0x81, 0x1a, 0xc6, 0xf3, 0x1e, 0xcb, 0xce, 0xd7, 0x11, 0x13, 0xfb,
  0xeb, 0x4a, 0xc5, 0x35, 0xad, 0x2b, 0xf9, 0x07, 0xda, 0xf1, 0x03, 0xe0,
  0xfb, 0x2c, 0xb1, 0x97, 0x22, 0xc0, 0x28, 0x2a, 0xba, 0xe2, 0xe5, 0x09,
  0xcf, 0x25, 0xeb, 0x6e, 0x0b, 0xff, 0x7f, 0x66, 0x03, 0xcd, 0xfc, 0xf2,
  0x2c, 0xfb, 0x05, 0xe2, 0x66, 0xb5, 0xf8, 0x3f, 0x14, 0xd5, 0x9d, 0xc8,
  0x38, 0x34, 0xe6, 0x00, 0x23, 0x50, 0x8f, 0xfe, 0x78, 0x47, 0x1d, 0x88,
  0xe1, 0x49, 0xec, 0x27, 0x2d, 0x3d, 0x15, 0xf0, 0xfe, 0x2d, 0x2a, 0xfb,
  0xf8, 0x06, 0xee, 0x04, 0xfc, 0x08, 0x01, 0x69, 0xf8, 0x08, 0x0d, 0xf9,
  0xf7, 0xf7, 0xfe, 0xfc, 0x15, 0x14, 0xff, 0xfe, 0x81, 0xf1, 0xe9, 0xef,
  0xe7, 0x0c, 0xf4, 0x05, 0x07, 0x01, 0xf3, 0xf2, 0xf9, 0x81, 0xfb, 0xe2,
  0x0d, 0x18, 0x16, 0x1a, 0x35, 0x31, 0x19, 0xfc, 0xdd, 0xf3, 0x9e, 0xff,
  0xee, 0x01, 0xf5, 0xd9, 0xe4, 0xed, 0xf3, 0xed, 0x0f, 0x17, 0x1b, 0xfd,
  0xd1, 0xe6, 0x19, 0x01, 0xfe, 0xfe, 0x0d, 0x13, 0x11, 0xf4, 0x0b, 0x05,
  0x7f, 0x5c, 0x2e, 0xde, 0xa4, 0x23, 0x1d, 0x3a, 0x2d, 0x1e, 0xdf, 0x04,
  0x18, 0x06, 0x28, 0x24, 0xca, 0xfe, 0x12, 0x03, 0xf9, 0x39, 0x0d, 0xf8,
  0xf7, 0x11, 0x00, 0x1b, 0x50, 0xec, 0x06, 0xca, 0xd9, 0xf1, 0x02, 0x19,
  0xf3, 0xda, 0x31, 0x06, 0x54, 0x36, 0x0b, 0x4c, 0xca, 0x2d, 0x0e, 0x3b,
  0xf5, 0x1f, 0xb5, 0x1b, 0xf6, 0x17, 0x17, 0xe9, 0xfd, 0xfe, 0x27, 0x2a,
  0x1c, 0xef, 0xca, 0x88, 0x1b, 0xf5, 0xd7, 0xbf, 0x25, 0x81, 0x33, 0x29,
  0x03, 0xaa, 0x25, 0xc4, 0xfd, 0xe9, 0xfc, 0x32, 0x00, 0x6b, 0x27, 0xc8,
  0xca, 0xda, 0x00, 0xfc, 0xd4, 0xce, 0xf3, 0xb9, 0x01, 0xeb, 0x4d, 0x7f,
  0x10, 0x14, 0x0a, 0xd4, 0xe0, 0x14, 0xf7, 0xef, 0xaf, 0xf1, 0xea, 0x63,
  0x62, 0xdd, 0x0f, 0x07, 0xbd, 0xfa, 0x4e, 0x39, 0x02, 0xe8, 0x27, 0x1c,
  0x36, 0x7f, 0xf2, 0x44, 0x11, 0x3c, 0x2a, 0x06, 0x2f, 0xf7, 0x25, 0xf1,
  0x69, 0x18, 0x30, 0x1d, 0x20, 0x21, 0x25, 0xdf, 0x27, 0xb7, 0xfc, 0x32,
  0xe7, 0x07, 0x4f, 0xf8, 0xde, 0xf3, 0x26, 0x05, 0xfd, 0xd1, 0x16, 0x44,
  0x76, 0xf4, 0xff, 0xff, 0x04, 0x00, 0x00, 0x00, 0x80, 0x00, 0x00, 0x00,
  0x43, 0xee, 0xff, 0xff, 0xf3, 0xed, 0xff, 0xff, 0x7c, 0xf9, 0xff, 0xff,
  0x81, 0xe6, 0xff, 0xff, 0xf9, 0xfa, 0xff, 0xff, 0xee, 0xef, 0xff, 0xff,
  0xfd, 0xe9, 0xff, 0xff, 0x95, 0xf9, 0xff, 0xff, 0x07, 0xf3, 0xff, 0xff,
  0xc6, 0xfc, 0xff, 0xff, 0xbe, 0xef, 0xff, 0xff, 0x50, 0x02, 0x00, 0x00,
  0xf9, 0xf9, 0xff, 0xff, 0x4e, 0xf8, 0xff, 0xff, 0xb5, 0xf4, 0xff, 0xff,
  0x2c, 0xf5, 0xff, 0xff, 0xab, 0xea, 0xff, 0xff, 0xbb, 0xf5, 0xff, 0xff,
  0x0d, 0xf3, 0xff, 0xff, 0x0b, 0xe6, 0xff, 0xff, 0xd4, 0xf8, 0xff, 0xff,
  0x32, 0xf4, 0xff, 0xff, 0x93, 0xfc, 0xff, 0xff, 0xcb, 0xfb, 0xff, 0xff,
  0xa0, 0xec, 0xff, 0xff, 0xb5, 0xe6, 0xff, 0xff, 0xda, 0xfa, 0xff, 0xff,
  0x23, 0x02, 0x00, 0x00, 0x70, 0xf6, 0xff, 0xff, 0xb4, 0xf5, 0xff, 0xff,
  0x32, 0xf2, 0xff, 0xff, 0x9c, 0xee, 0xff, 0xff, 0x02, 0xf5, 0xff, 0xff,
  0x04, 0x00, 0x00, 0x00, 0x00, 0x06, 0x00, 0x00, 0xf9, 0x31, 0xfc, 0xf2,
  0x21, 0xe6, 0xfb, 0xd9, 0x22, 0x2c, 0x00, 0xf5, 0xf9, 0x37, 0x1c, 0x31,
  0x03, 0xa9, 0x01, 0xfd, 0xad, 0xda, 0xdb, 0x15, 0xe7, 0xd9, 0x04, 0x21,
  0xa7, 0x03, 0xfd, 0xfd, 0xa4, 0x31, 0xed, 0xcd, 0xc5, 0x46, 0x28, 0xc6,
  0x09, 0xfc, 0xc9, 0xb1, 0xdd, 0xed, 0xbb, 0xcd, 0x15, 0xd4, 0xd7, 0xe7,
  0xc4, 0xb0, 0x09, 0xbf, 0xc1, 0xf5, 0xdc, 0xc1, 0xec, 0xcd, 0xd6, 0xc0,
  0xc3, 0xdd, 0xe0, 0xbb, 0xc8, 0x04, 0x1c, 0x0a, 0xfc, 0x97, 0xa7, 0xba,
  0xe2, 0x81, 0xe2, 0xc5, 0x1c, 0xf4, 0xc7, 0xf9, 0x32, 0x95, 0x19, 0xce,
  0xc4, 0xf4, 0xf7, 0xae, 0x56, 0xe0, 0xff, 0xae, 0x18, 0xbe, 0xf1, 0xdf,
  0x0a, 0xa8, 0xdd, 0xfd, 0xfe, 0xe9, 0xed, 0x0d, 0xe4, 0xe0, 0xfe, 0xfc,
  0x17, 0x35, 0xe1, 0xac, 0xff, 0xf6, 0xd7, 0x07, 0xd9, 0xdd, 0x0c, 0x0d,
  0xbe, 0xf3, 0xef, 0xb1, 0x20, 0xa6, 0x1b, 0x2a, 0xed, 0xcf, 0xca, 0xe2,
  0xe0, 0xbf, 0x1b, 0x15, 0x17, 0xde, 0x16, 0x0a, 0xdf, 0x41, 0xec, 0xee,
  0x17, 0xda, 0xdd, 0xf0, 0xdc, 0xfa, 0xc7, 0xfd, 0x08, 0xfe, 0xdd, 0x00,
  0xed, 0x9c, 0x24, 0x0c, 0xdc, 0xeb, 0xbf, 0xf4, 0xa8, 0x81, 0xa9, 0x25,
  0xcd, 0xa9, 0xc3, 0xe1, 0x32, 0x1e, 0x39, 0x3a, 0xca, 0xe2, 0xfc, 0xd8,
  0xdd, 0xdb, 0x0b, 0xc8, 0xfc, 0x2d, 0x81, 0x32, 0x06, 0x01, 0xff, 0xe2,
  0xe2, 0xf2, 0xca, 0x00, 0xdb, 0xc4, 0x07, 0xe3, 0xe2, 0x00, 0xfe, 0x49,
  0xbc, 0xfd, 0xc7, 0x1b, 0xbf, 0xba, 0x0a, 0xee, 0x43, 0x25, 0xf4, 0xee,
  0x8d, 0x06, 0x3b, 0x0f, 0xfb, 0x00, 0x16, 0xf0, 0xf7, 0xd7, 0xf5, 0x1a,
  0xdd, 0xb9, 0x07, 0xd5, 0xf6, 0x0c, 0xe2, 0x1d, 0x02, 0xec, 0xd9, 0x1a,
  0xca, 0xed, 0x0a, 0xef, 0x16, 0x2e, 0x18, 0xf9, 0xc7, 0x07, 0x0f, 0x28,
  0x2c, 0x14, 0xf7, 0x0e, 0xbd, 0xe5, 0xd4, 0xe5, 0xf3, 0x81, 0xc4, 0xf3,
  0xcd, 0x1e, 0xd5, 0x1e, 0xe2, 0x0c, 0xd3, 0x23, 0xd8, 0x27, 0x02, 0xc4,
  0x06, 0x2d, 0xfd, 0x11, 0xb2, 0xe9, 0x40, 0x0c, 0x17, 0xcb, 0x1c, 0xbb,
  0x07, 0xd3, 0xb5, 0x0d, 0xfd, 0xfa, 0xf4, 0x0d, 0xd7, 0xd1, 0xeb, 0x24,
  0x14, 0x01, 0x0f, 0xca, 0xd9, 0xc2, 0xe3, 0x08, 0xcb, 0xb7, 0xd6, 0x0f,
  0xa0, 0xb1, 0xbb, 0xa3, 0xf6, 0xdc, 0xdd, 0xb6, 0x04, 0xed, 0xda, 0x15,
  0x00, 0x08, 0xe8, 0x16, 0xea, 0xde, 0x07, 0x18, 0x20, 0x0b, 0x07, 0xa1,
  0xfd, 0xb5, 0x03, 0x0a, 0xcd, 0xc0, 0xc3, 0x12, 0xab, 0xb8, 0xd8, 0xdf,
  0xfb, 0x04, 0x48, 0xbc, 0xfc, 0xeb, 0xea, 0x23, 0x02, 0x03, 0x02, 0xf9,
  0xd7, 0xcc, 0x0f, 0x0b, 0x7f, 0xe9, 0xf9, 0x9e, 0xdf, 0xc4, 0xee, 0x18,
  0xce, 0xb6, 0xc8, 0x06, 0xc9, 0x09, 0xb4, 0xde, 0x09, 0xd0, 0x01, 0xd9,
  0x9e, 0xe8, 0xfe, 0x50, 0xa5, 0xd9, 0xfb, 0x00, 0x14, 0x01, 0x25, 0xfa,
  0xd8, 0x1a, 0x36, 0xfc, 0x02, 0x07, 0x32, 0xd6, 0x10, 0x04, 0x37, 0x02,
  0x30, 0x3a, 0x1c, 0xe1, 0x13, 0xf8, 0x17, 0xc8, 0xb9, 0x12, 0xbc, 0x22,
  0xb1, 0xf8, 0x06, 0xfe, 0x52, 0xd9, 0x32, 0x0b, 0xa8, 0x31, 0x2b, 0xd7,
  0xf1, 0xec, 0x17, 0xd4, 0x3a, 0x00, 0x28, 0x0c, 0x03, 0x0e, 0x12, 0xfc,
  0xe7, 0x14, 0x15, 0xcf, 0xce, 0xf6, 0xca, 0x4d, 0xb2, 0xf8, 0x0c, 0xe3,
  0x31, 0x1b, 0x49, 0xf0, 0xc6, 0x3b, 0x20, 0xd7, 0xea, 0x22, 0x3b, 0xdf,
  0x7f, 0xe2, 0x53, 0xfc, 0x07, 0x00, 0xfd, 0xdf, 0x0f, 0x0e, 0xff, 0x19,
  0xab, 0xa6, 0xa1, 0x3c, 0xb8, 0xce, 0xbb, 0xec, 0x21, 0xe3, 0x81, 0xa2,
  0xab, 0xef, 0x01, 0xe9, 0xbd, 0xce, 0xaf, 0xea, 0xb3, 0xf3, 0xed, 0xbe,
  0xca, 0xd9, 0xae, 0xf1, 0xb5, 0x0e, 0xd4, 0xfc, 0x0d, 0xf9, 0x3e, 0x03,
  0xe7, 0xf1, 0xd3, 0x03, 0x92, 0x40, 0xdd, 0xb5, 0xe7, 0x08, 0xc1, 0x02,
  0xca, 0xf0, 0x0e, 0xd2, 0x07, 0x24, 0xce, 0xe2, 0xfd, 0xa1, 0xde, 0xcf,
  0xee, 0xdb, 0xc9, 0xd3, 0xde, 0x02, 0xcb, 0xb7, 0xcc, 0xf0, 0xe7, 0xd2,
  0xef, 0x3c, 0x02, 0xf2, 0xe9, 0xa5, 0xc6, 0xf3, 0xd4, 0xfc, 0x5b, 0xf5,
  0xdf, 0x13, 0xcb, 0xe9, 0xf6, 0x98, 0xbd, 0xb7, 0x44, 0xa7, 0x28, 0x25,
  0xbe, 0x02, 0xe5, 0xfc, 0xc0, 0xcc, 0x40, 0x01, 0xe9, 0xd2, 0xe6, 0xff,
  0xf2, 0x35, 0x3a, 0x31, 0xfd, 0xd1, 0xc8, 0xb0, 0xe8, 0xe9, 0xd2, 0xd0,
  0x00, 0x29, 0xbb, 0x04, 0xfb, 0xe6, 0xf7, 0xe8, 0x07, 0x16, 0xe5, 0xef,
  0xdb, 0xf7, 0xf3, 0xb1, 0xc6, 0x9f, 0xe7, 0xf5, 0x22, 0xe8, 0x07, 0xf0,
  0xc7, 0xd1, 0xd0, 0xbe, 0xfe, 0xc0, 0xd2, 0x81, 0xe7, 0x0d, 0xb7, 0x0d,
  0xd7, 0x21, 0x19, 0x03, 0xfb, 0xf7, 0xfb, 0xf1, 0x36, 0xc3, 0x01, 0x8b,
  0xed, 0xe2, 0xcd, 0xd2, 0x09, 0xc9, 0x9e, 0x1f, 0xb9, 0xf0, 0xdc, 0xac,
  0x14, 0xb4, 0xf5, 0x9f, 0xff, 0xf4, 0xd0, 0xf8, 0xb5, 0x2b, 0xda, 0xdb,
  0xe2, 0x1f, 0x30, 0xe3, 0x27, 0x19, 0xf1, 0x12, 0xe8, 0x51, 0x46, 0x39,
  0x12, 0xe8, 0xe2, 0xea, 0xf7, 0xec, 0x18, 0xf7, 0xe2, 0x3c, 0x44, 0xd4,
  0xdf, 0xca, 0x1f, 0x09, 0xb3, 0x3f, 0xe5, 0xf9, 0xe2, 0x2c, 0x0a, 0xfa,
  0x13, 0xc3, 0xb8, 0xd9, 0xea, 0xf7, 0xe9, 0x3b, 0x0f, 0xe5, 0xce, 0xd5,
  0xff, 0xba, 0x30, 0xbf, 0xd9, 0x1a, 0x44, 0xc1, 0x28, 0xc9, 0xe5, 0xfc,
  0xec, 0xee, 0xfc, 0xf1, 0xdb, 0x26, 0x16, 0xf1, 0x1d, 0x81, 0x95, 0x09,
  0x0e, 0xe6, 0xf7, 0x0b, 0x18, 0x07, 0xee, 0xea, 0x57, 0xf8, 0x2f, 0xa7,
  0xe8, 0x04, 0x37, 0xb6, 0x1c, 0xeb, 0xfb, 0xb2, 0x0d, 0xb9, 0x1b, 0x07,
  0x00, 0xd5, 0x13, 0xf1, 0xd9, 0xd4, 0xc1, 0x06, 0x24, 0xd8, 0xad, 0x27,
  0xd4, 0xd4, 0x0b, 0xe9, 0xe6, 0x19, 0xd0, 0xe7, 0x0e, 0xb6, 0x20, 0xc1,
  0xcf, 0xba, 0x28, 0xc5, 0xd1, 0xfc, 0xe9, 0xec, 0x01, 0x08, 0xb3, 0xf9,
  0x98, 0xbf, 0xc1, 0xf4, 0xdf, 0x18, 0x17, 0xf5, 0xc8, 0xab, 0x17, 0xd3,
  0xf1, 0x15, 0xee, 0xc5, 0x19, 0xbb, 0x0b, 0xe0, 0xf9, 0xd7, 0xc5, 0x08,
  0x15, 0xea, 0xad, 0xfc, 0xf1, 0xf6, 0x08, 0xd7, 0xda, 0xb7, 0xf0, 0xd6,
  0xd7, 0xed, 0xd5, 0x81, 0xb7, 0x09, 0xa5, 0x1c, 0x91, 0x10, 0x0a, 0xc9,
  0xfa, 0xe8, 0xdd, 0xfa, 0xf4, 0xa8, 0xd0, 0x08, 0x04, 0xf2, 0x44, 0x2c,
  0xa4, 0x48, 0xda, 0xf8, 0xb6, 0x97, 0x2e, 0xb2, 0xff, 0x04, 0xe7, 0x0e,
  0x1d, 0x07, 0x24, 0x27, 0x0b, 0xcf, 0xbd, 0xdc, 0xe9, 0x30, 0xc9, 0xa5,
  0xf6, 0x00, 0xfa, 0x1e, 0xbd, 0x0a, 0xfa, 0x0b, 0x25, 0xf7, 0xd3, 0xda,
  0xcb, 0xb7, 0x13, 0xab, 0xb8, 0x0a, 0xcc, 0x0a, 0x08, 0x24, 0xfe, 0xf5,
  0xe4, 0xf7, 0xba, 0x94, 0xe0, 0x05, 0xca, 0xa2, 0xe3, 0x1a, 0xf6, 0xf6,
  0xe0, 0x38, 0xf3, 0x10, 0x38, 0x35, 0xf0, 0xb8, 0x04, 0xb6, 0x3a, 0xb0,
  0xd3, 0x04, 0xde, 0x19, 0x22, 0xff, 0xe8, 0xf2, 0xd0, 0xf1, 0x99, 0xb1,
  0xc2, 0x15, 0xe0, 0x81, 0xff, 0xfe, 0x24, 0xed, 0xe3, 0x11, 0xa1, 0xaf,
  0xef, 0xe5, 0x59, 0x4c, 0xc9, 0xf6, 0xc6, 0x03, 0x15, 0xb9, 0x2b, 0x2a,
  0xc9, 0x1f, 0x06, 0xf6, 0x1f, 0xd1, 0x1e, 0xde, 0x3d, 0x38, 0x75, 0x18,
  0xd6, 0x12, 0x50, 0xc5, 0xe1, 0x13, 0xa8, 0xd6, 0xac, 0xb7, 0x1a, 0xeb,
  0xd0, 0xfb, 0x81, 0xe9, 0x31, 0x2c, 0xfb, 0xd8, 0xe5, 0x2d, 0x15, 0xd8,
  0x01, 0xc8, 0x36, 0xc5, 0xea, 0x2f, 0x75, 0xde, 0x06, 0xf1, 0xe3, 0xc4,
  0xe5, 0xf9, 0xad, 0xca, 0xb8, 0xca, 0xbc, 0x34, 0xc6, 0xeb, 0xcc, 0x0a,
  0x63, 0x24, 0x5b, 0x01, 0xd4, 0x18, 0xf6, 0xcd, 0x27, 0xb8, 0x40, 0xc8,
  0x00, 0x13, 0x63, 0x1a, 0xff, 0xe9, 0x44, 0xd6, 0xef, 0x13, 0xce, 0x45,
  0xdf, 0xbe, 0xe3, 0xf2, 0xd0, 0xbe, 0x25, 0xd4, 0x13, 0x2c, 0xda, 0x15,
  0xdb, 0x25, 0x8b, 0x09, 0xd3, 0xd9, 0xb3, 0x92, 0xbe, 0x27, 0x39, 0xfc,
  0xc7, 0x02, 0x2b, 0x23, 0xc7, 0x2c, 0xe8, 0xf2, 0xd4, 0xba, 0xdc, 0xb2,
  0xe9, 0xb0, 0x07, 0xd7, 0xf3, 0x32, 0xdc, 0x11, 0xe7, 0xf4, 0xab, 0x22,
  0xc8, 0x28, 0xa8, 0x9d, 0xd4, 0x06, 0x31, 0xfa, 0xa6, 0xea, 0x12, 0x0f,
  0x19, 0x12, 0xbd, 0xf4, 0xbf, 0xe9, 0xde, 0xc3, 0x06, 0x81, 0xfd, 0xf9,
  0x0c, 0x49, 0xd7, 0x23, 0xd7, 0xd5, 0xc4, 0xe6, 0xe0, 0x11, 0xa3, 0x9f,
  0xb4, 0x3c, 0x08, 0xaf, 0xdf, 0x02, 0xeb, 0x04, 0xd9, 0x22, 0xed, 0xe9,
  0xdd, 0xf8, 0x29, 0xf4, 0x0d, 0xdc, 0x81, 0xcd, 0xff, 0xe6, 0xa5, 0xd8,
  0x0b, 0x05, 0xed, 0x2b, 0x16, 0x8f, 0x1c, 0xde, 0xc9, 0x2a, 0xf6, 0xa2,
  0x2b, 0xe8, 0x15, 0xe3, 0x11, 0xaa, 0xfb, 0xf4, 0x01, 0xda, 0xed, 0xdd,
  0xf2, 0xc7, 0xbd, 0xdf, 0x17, 0xf1, 0xe8, 0xb0, 0xe5, 0xe1, 0xca, 0x1a,
  0x30, 0xc2, 0xb8, 0xb0, 0xcb, 0x05, 0xc5, 0xbd, 0x04, 0x18, 0x25, 0x02,
  0x4b, 0xf0, 0x08, 0x31, 0x01, 0xe6, 0xb1, 0xcd, 0xc7, 0xef, 0x0c, 0xfb,
  0x0e, 0x02, 0xf9, 0xd9, 0xc6, 0x0a, 0xe2, 0x01, 0x1c, 0xb2, 0xef, 0xef,
  0xef, 0x2b, 0xd1, 0xfe, 0xf2, 0xfc, 0x2c, 0x4c, 0x58, 0x90, 0x3a, 0x07,
  0xba, 0x27, 0xcd, 0x1d, 0xc5, 0xcb, 0x2a, 0x28, 0xe3, 0x9f, 0xd0, 0x05,
  0x11, 0x46, 0x4d, 0x18, 0xca, 0xda, 0xc8, 0xf1, 0x20, 0xfb, 0x9b, 0xbc,
  0x01, 0xe9, 0xea, 0x0e, 0x25, 0xd3, 0x07, 0x0a, 0x92, 0x0d, 0xbf, 0xdb,
  0xc2, 0xb3, 0x03, 0xc8, 0xc5, 0x81, 0xbf, 0x09, 0x02, 0xf7, 0x11, 0x32,
  0xa8, 0xc5, 0xb4, 0xa0, 0xc4, 0xd6, 0xa7, 0xbf, 0xf3, 0x20, 0xc1, 0x0c,
  0xd2, 0x12, 0x2c, 0xfb, 0xe8, 0xfa, 0xd5, 0xc1, 0x2a, 0x94, 0xe0, 0xaa,
  0xed, 0xe5, 0xda, 0xbe, 0x1b, 0x08, 0x04, 0x1c, 0xab, 0x0d, 0xe6, 0x91,
  0x14, 0xbf, 0xe3, 0x9a, 0xf8, 0x0a, 0xf0, 0x2e, 0x0a, 0x33, 0x00, 0x0e,
  0xf0, 0x4b, 0x1c, 0xac, 0x14, 0xf5, 0x5c, 0xb6, 0xa7, 0xf0, 0xf2, 0xd7,
  0xfa, 0xe1, 0xf6, 0x0b, 0xf0, 0x9a, 0xd7, 0xba, 0xa0, 0xbb, 0xca, 0x81,
  0xe5, 0x1c, 0x14, 0xec, 0xed, 0x26, 0xf0, 0x1e, 0x27, 0xfe, 0x27, 0xc0,
  0xec, 0xb5, 0x0f, 0xe3, 0xb4, 0xa8, 0xbe, 0xc3, 0xf6, 0xdf, 0xd2, 0xff,
  0x33, 0xcf, 0xd3, 0xc3, 0xc4, 0xd5, 0xb7, 0x95, 0x0d, 0xf8, 0x2d, 0x08,
  0xde, 0x24, 0xf7, 0x19, 0x41, 0x1c, 0x0e, 0x10, 0x43, 0x2a, 0x06, 0x0f,
  0xdd, 0xd8, 0xf1, 0xd5, 0x0e, 0x2c, 0x12, 0xdc, 0x2f, 0xbd, 0xfd, 0x02,
  0xda, 0x0e, 0xe1, 0xb5, 0x0d, 0x0e, 0x02, 0x17, 0xf1, 0xf0, 0xe0, 0x97,
  0xfd, 0xea, 0xa0, 0xc9, 0xd2, 0xd0, 0x3e, 0xd5, 0xab, 0xa7, 0x44, 0xee,
  0x9d, 0x81, 0xa6, 0xde, 0x9a, 0x99, 0xe9, 0x36, 0x40, 0xe3, 0xa4, 0xc8,
  0xa4, 0x99, 0xc6, 0xbf, 0x19, 0xda, 0x27, 0xe8, 0x05, 0xf2, 0xe0, 0xec,
  0x16, 0xca, 0x0e, 0xb5, 0xbe, 0x14, 0x1a, 0xf6, 0xc8, 0xaa, 0xd1, 0x13,
  0xa5, 0xbe, 0xe8, 0x24, 0x0e, 0x07, 0xc0, 0x03, 0xb6, 0xcb, 0x07, 0x08,
  0x2c, 0xf1, 0xfd, 0xe8, 0xe3, 0xad, 0xba, 0xe1, 0xf7, 0x9f, 0x11, 0x9a,
  0x8b, 0xeb, 0xcc, 0x0f, 0xf2, 0xcf, 0xf5, 0x57, 0xad, 0xe5, 0xd0, 0xfa,
  0xe9, 0x17, 0xed, 0x17, 0xa9, 0xf5, 0x44, 0x2a, 0x0e, 0xfb, 0xff, 0xff,
  0x04, 0x00, 0x00, 0x00, 0x40, 0x00, 0x00, 0x00, 0xf3, 0xfd, 0xff, 0xff,
  0xea, 0xfd, 0xff, 0xff, 0x6c, 0xfe, 0xff, 0xff, 0x3b, 0x0c, 0x00, 0x00,
  0x0c, 0x00, 0x00, 0x00, 0x4f, 0xfc, 0xff, 0xff, 0xa3, 0x08, 0x00, 0x00,
  0xe1, 0xfe, 0xff, 0xff, 0xbe, 0xfa, 0xff, 0xff, 0xa4, 0x05, 0x00, 0x00,
  0x54, 0xff, 0xff, 0xff, 0x2b, 0xfc, 0xff, 0xff, 0xfb, 0xfd, 0xff, 0xff,
  0xcb, 0x09, 0x00, 0x00, 0xfd, 0x05, 0x00, 0x00, 0x6f, 0xfb, 0xff, 0xff,
  0x5a, 0xfb, 0xff, 0xff, 0x04, 0x00, 0x00, 0x00, 0x80, 0x01, 0x00, 0x00,
  0x0c, 0xfa, 0x0b, 0x9f, 0x38, 0x43, 0xc3, 0xf4, 0xf3, 0xbe, 0x24, 0xb1,
  0xde, 0xcd, 0xe1, 0x0e, 0xd9, 0xfd, 0x02, 0x93, 0xf8, 0xfc, 0xba, 0x05,
  0x1a, 0xa8, 0x20, 0xab, 0xc2, 0xe0, 0xdc, 0x18, 0x0e, 0xf5, 0xf8, 0xdd,
  0x3c, 0xf2, 0xbe, 0xff, 0xd8, 0x81, 0x18, 0xcf, 0xdc, 0xed, 0xf5, 0xe3,
  0xf4, 0x5d, 0xa3, 0x44, 0xe0, 0x37, 0xc4, 0x94, 0x12, 0x9b, 0xb0, 0x93,
  0x81, 0xc1, 0x84, 0xea, 0x12, 0x3b, 0xab, 0x06, 0xf7, 0xfe, 0x2a, 0xc6,
  0x1e, 0xe5, 0xc6, 0xb9, 0xbd, 0x2d, 0xc6, 0xc9, 0x0c, 0x4f, 0x87, 0x24,
  0xf9, 0x07, 0x28, 0xf4, 0xf8, 0xf9, 0xf7, 0xde, 0xa8, 0x03, 0x04, 0xaa,
  0xda, 0xd7, 0x0a, 0x3f, 0xe8, 0x09, 0xa6, 0x14, 0x28, 0x00, 0xea, 0x7f,
  0x0d, 0xbf, 0xc3, 0x3d, 0xe8, 0xe9, 0x17, 0x1c, 0xe4, 0xf0, 0x9a, 0xfb,
  0x17, 0xfd, 0xf1, 0xea, 0x20, 0xd2, 0xc6, 0x2a, 0x17, 0xf6, 0x3a, 0x4d,
  0xe4, 0x20, 0x83, 0x10, 0x09, 0x05, 0xeb, 0x4c, 0x01, 0xdd, 0xf8, 0x46,
  0x1b, 0xec, 0xe2, 0x0a, 0xca, 0xfe, 0xac, 0xf8, 0x03, 0x81, 0xf4, 0xd9,
  0xe9, 0xba, 0xd0, 0xef, 0x27, 0xec, 0xdf, 0xfd, 0xf5, 0xfc, 0xe1, 0x12,
  0x0c, 0xce, 0x00, 0xe2, 0x33, 0xe0, 0xea, 0xdb, 0x1e, 0xd7, 0xe6, 0xee,
  0xf5, 0x09, 0xdd, 0x21, 0xfc, 0xdb, 0x10, 0xdb, 0x2b, 0xd6, 0x0e, 0xd8,
  0xcf, 0x0b, 0x0b, 0x06, 0x04, 0x1b, 0x25, 0x91, 0x11, 0xad, 0xb6, 0xde,
  0xab, 0x05, 0xe3, 0x7f, 0xf1, 0x2d, 0x28, 0xfa, 0xf6, 0x10, 0xf3, 0xcd,
  0x23, 0xc4, 0xf0, 0xe1, 0xed, 0x0e, 0xe7, 0x48, 0xd0, 0x18, 0x19, 0xd4,
  0x1b, 0x08, 0x1a, 0xdb, 0x0b, 0x05, 0xd6, 0xf4, 0x10, 0x29, 0xf7, 0x5f,
  0x8b, 0xfb, 0x86, 0xf6, 0xf3, 0xb0, 0x53, 0x9e, 0x11, 0x37, 0xee, 0x96,
  0xe1, 0x22, 0x37, 0xaa, 0xd4, 0xed, 0x81, 0xe8, 0x02, 0x54, 0x3a, 0xd6,
  0x1e, 0x4d, 0xdf, 0xa5, 0xe2, 0x50, 0x21, 0xe8, 0xa1, 0x4a, 0xa2, 0xf2,
  0xfd, 0xbb, 0x49, 0xd6, 0xea, 0x30, 0x00, 0xd8, 0x0a, 0x4a, 0x27, 0xc0,
  0x37, 0xda, 0x9d, 0x1a, 0x86, 0x21, 0xbf, 0x35, 0xe0, 0xbd, 0xc6, 0xb0,
  0xae, 0xc0, 0x4a, 0xe3, 0x43, 0xa1, 0x81, 0xff, 0xc9, 0x30, 0xaa, 0x3a,
  0xea, 0xa2, 0xf8, 0xc1, 0x00, 0xa2, 0x64, 0x8d, 0x72, 0xee, 0xf5, 0x14,
  0x0b, 0x0f, 0x9b, 0xf5, 0xe2, 0x06, 0x07, 0xe9, 0x3c, 0xa6, 0x30, 0xbd,
  0xbf, 0x45, 0x2a, 0xfe, 0x09, 0x2a, 0xa3, 0x2a, 0xe2, 0x00, 0x13, 0x48,
  0xd4, 0x81, 0xb7, 0x99, 0xb8, 0x1f, 0x0f, 0xea, 0xf6, 0xb0, 0xa6, 0x28,
  0x0e, 0x0f, 0x13, 0x04, 0xfa, 0xb7, 0x90, 0xc3, 0x02, 0xe1, 0x0c, 0x23,
  0xfb, 0x2d, 0xa7, 0x3e, 0x31, 0xf2, 0x31, 0x41, 0xf7, 0x8b, 0xdd, 0xca,
  0xe6, 0xfc, 0xff, 0xff, 0x04, 0x00, 0x00, 0x00, 0x20, 0x00, 0x00, 0x00,
  0x22, 0x02, 0x00, 0x00, 0x90, 0x04, 0x00, 0x00, 0xa1, 0x01, 0x00, 0x00,
  0x2f, 0x01, 0x00, 0x00, 0xac, 0xff, 0xff, 0xff, 0x5f, 0x01, 0x00, 0x00,
  0xd0, 0x00, 0x00, 0x00, 0x06, 0x00, 0x00, 0x00, 0x12, 0xfd, 0xff, 0xff,
  0x04, 0x00, 0x00, 0x00, 0x50, 0x01, 0x00, 0x00, 0xdd, 0x08, 0x0c, 0xda,
  0x0c, 0x01, 0xfc, 0x03, 0xef, 0x17, 0x0a, 0xea, 0x04, 0x07, 0xe6, 0x0a,
  0xfc, 0x1b, 0x0c, 0xdd, 0xfd, 0x0b, 0xf3, 0x13, 0x03, 0x1e, 0x0a, 0xf0,
  0x06, 0x08, 0xd6, 0x11, 0xfe, 0x27, 0x10, 0x01, 0xf9, 0xfc, 0xe7, 0x07,
  0x03, 0x14, 0x14, 0xf8, 0xf4, 0xe7, 0xf8, 0x1c, 0x0c, 0x0c, 0x07, 0x00,
  0xf4, 0xe0, 0xc4, 0x08, 0xf5, 0x06, 0xb9, 0xdb, 0x12, 0x18, 0xdb, 0xf4,
  0xfc, 0xfb, 0xb5, 0xde, 0x0e, 0x17, 0xde, 0xd8, 0xeb, 0x0a, 0xa0, 0xd9,
  0xff, 0x1f, 0xe8, 0xbb, 0xf2, 0x09, 0xbe, 0xd6, 0x17, 0x19, 0xfa, 0xd5,
  0xf9, 0x0b, 0xd6, 0xe2, 0xfd, 0x16, 0x15, 0xcb, 0x06, 0x04, 0xf1, 0xef,
  0x12, 0x0e, 0x09, 0xef, 0x01, 0xf5, 0xdd, 0x14, 0x0e, 0x0e, 0x0c, 0xd8,
  0x10, 0xd5, 0xf0, 0x09, 0x11, 0xfc, 0x11, 0x15, 0x30, 0xdd, 0xed, 0x13,
  0x01, 0xef, 0x0b, 0x05, 0x2e, 0x03, 0xfb, 0xff, 0x02, 0xf6, 0x09, 0x00,
  0x24, 0xf8, 0xee, 0xfe, 0xfc, 0xec, 0xf8, 0x05, 0x15, 0x01, 0xf5, 0x10,
  0xfe, 0xf2, 0xfb, 0xfb, 0x18, 0xe3, 0xfb, 0x08, 0x0f, 0xf2, 0xf9, 0x1b,
  0x1c, 0xca, 0xee, 0xee, 0x17, 0x04, 0xfc, 0x15, 0xda, 0x07, 0x10, 0x11,
  0xc2, 0xba, 0x29, 0x09, 0xf7, 0x0b, 0x0d, 0x1d, 0xae, 0xcf, 0x22, 0x07,
  0xf8, 0x0a, 0x14, 0x03, 0xce, 0xe1, 0x1d, 0x0f, 0xf2, 0x17, 0x0b, 0x07,
  0xda, 0xdb, 0x03, 0x0d, 0xf6, 0x17, 0x10, 0x0b, 0xd9, 0xe0, 0x02, 0x00,
  0xfd, 0x09, 0x13, 0x01, 0xe2, 0xcd, 0x01, 0x19, 0x09, 0x09, 0x09, 0xf8,
  0x0c, 0xdc, 0xed, 0x00, 0xec, 0xd4, 0x1d, 0xc3, 0x23, 0xb3, 0xcd, 0xed,
  0xf6, 0xd3, 0x16, 0xd8, 0x1e, 0xc0, 0xde, 0xf7, 0x00, 0xa6, 0x13, 0xf7,
  0x20, 0xdd, 0x1f, 0xfd, 0x15, 0x81, 0x04, 0xf7, 0x22, 0xe3, 0x11, 0x05,
  0xf7, 0xa4, 0xfc, 0xfe, 0x0e, 0xf0, 0x17, 0xee, 0xfa, 0xdb, 0xf7, 0x06,
  0x1d, 0xee, 0x12, 0x01, 0x06, 0xe9, 0xdc, 0xfb, 0xd2, 0xf1, 0x0a, 0xf4,
  0xec, 0xe5, 0xef, 0x22, 0xc2, 0x0f, 0x2a, 0x10, 0x04, 0xe0, 0xf7, 0x31,
  0xe5, 0x18, 0x23, 0x03, 0xfd, 0xf5, 0xdf, 0x12, 0xe7, 0x1d, 0x1b, 0xe6,
  0xf0, 0xf4, 0xde, 0x1c, 0xf0, 0x1a, 0x10, 0xe1, 0xed, 0x09, 0xf7, 0x16,
  0xed, 0x10, 0x05, 0xc7, 0xe5, 0x0b, 0x04, 0xee, 0x0f, 0x0a, 0x01, 0xe8,
  0xf4, 0x08, 0xfb, 0xfa, 0x07, 0x11, 0x00, 0xe4, 0x6e, 0xfe, 0xff, 0xff,
  0x04, 0x00, 0x00, 0x00, 0x18, 0x00, 0x00, 0x00, 0x0b, 0xfd, 0xff, 0xff,
  0x87, 0x03, 0x00, 0x00, 0xe4, 0x02, 0x00, 0x00, 0x82, 0xfe, 0xff, 0xff,
  0xfe, 0xfe, 0xff, 0xff, 0x08, 0xff, 0xff, 0xff, 0x92, 0xfe, 0xff, 0xff,
  0x04, 0x00, 0x00, 0x00, 0x08, 0x00, 0x00, 0x00, 0xff, 0xff, 0xff, 0xff,
  0x38, 0x00, 0x00, 0x00, 0xa6, 0xfe, 0xff, 0xff, 0x04, 0x00, 0x00, 0x00,
  0x10, 0x00, 0x00, 0x00, 0x01, 0x00, 0x00, 0x00, 0x0d, 0x00, 0x00, 0x00,
  0x01, 0x00, 0x00, 0x00, 0x08, 0x00, 0x00, 0x00, 0xc2, 0xfe, 0xff, 0xff,
  0x04, 0x00, 0x00, 0x00, 0x10, 0x00, 0x00, 0x00, 0x01, 0x00, 0x00, 0x00,
  0x01, 0x00, 0x00, 0x00, 0x0d, 0x00, 0x00, 0x00, 0x10, 0x00, 0x00, 0x00,
  0xde, 0xfe, 0xff, 0xff, 0x04, 0x00, 0x00, 0x00, 0x10, 0x00, 0x00, 0x00,
  0x01, 0x00, 0x00, 0x00, 0x19, 0x00, 0x00, 0x00, 0x01, 0x00, 0x00, 0x00,
  0x10, 0x00, 0x00, 0x00, 0xfa, 0xfe, 0xff, 0xff, 0x04, 0x00, 0x00, 0x00,
  0x10, 0x00, 0x00, 0x00, 0x01, 0x00, 0x00, 0x00, 0x01, 0x00, 0x00, 0x00,
  0x19, 0x00, 0x00, 0x00, 0x20, 0x00, 0x00, 0x00, 0x16, 0xff, 0xff, 0xff,
  0x04, 0x00, 0x00, 0x00, 0x10, 0x00, 0x00, 0x00, 0x01, 0x00, 0x00, 0x00,
  0x32, 0x00, 0x00, 0x00, 0x01, 0x00, 0x00, 0x00, 0x20, 0x00, 0x00, 0x00,
  0x32, 0xff, 0xff, 0xff, 0x04, 0x00, 0x00, 0x00, 0x10, 0x00, 0x00, 0x00,
  0x01, 0x00, 0x00, 0x00, 0x01, 0x00, 0x00, 0x00, 0x32, 0x00, 0x00, 0x00,
  0x0d, 0x00, 0x00, 0x00, 0xbc, 0xe8, 0xff, 0xff, 0xc0, 0xe8, 0xff, 0xff,
  0x0f, 0x00, 0x00, 0x00, 0x4d, 0x4c, 0x49, 0x52, 0x20, 0x43, 0x6f, 0x6e,
  0x76, 0x65, 0x72, 0x74, 0x65, 0x64, 0x2e, 0x00, 0x01, 0x00, 0x00, 0x00,
  0x14, 0x00, 0x00, 0x00, 0x00, 0x00, 0x0e, 0x00, 0x18, 0x00, 0x14, 0x00,
  0x10, 0x00, 0x0c, 0x00, 0x08, 0x00, 0x04, 0x00, 0x0e, 0x00, 0x00, 0x00,
  0x14, 0x00, 0x00, 0x00, 0x1c, 0x00, 0x00, 0x00, 0x50, 0x03, 0x00, 0x00,
  0x54, 0x03, 0x00, 0x00, 0x58, 0x03, 0x00, 0x00, 0x04, 0x00, 0x00, 0x00,
  0x6d, 0x61, 0x69, 0x6e, 0x00, 0x00, 0x00, 0x00, 0x0f, 0x00, 0x00, 0x00,
  0x14, 0x03, 0x00, 0x00, 0xb8, 0x02, 0x00, 0x00, 0x84, 0x02, 0x00, 0x00,
  0x34, 0x02, 0x00, 0x00, 0x10, 0x02, 0x00, 0x00, 0xcc, 0x01, 0x00, 0x00,
  0xa8, 0x01, 0x00, 0x00, 0x68, 0x01, 0x00, 0x00, 0x44, 0x01, 0x00, 0x00,
  0x00, 0x01, 0x00, 0x00, 0xdc, 0x00, 0x00, 0x00, 0x9c, 0x00, 0x00, 0x00,
  0x78, 0x00, 0x00, 0x00, 0x40, 0x00, 0x00, 0x00, 0x04, 0x00, 0x00, 0x00,
  0x8e, 0xfd, 0xff, 0xff, 0x1c, 0x00, 0x00, 0x00, 0x00, 0x00, 0x00, 0x09,
  0x1c, 0x00, 0x00, 0x00, 0x20, 0x00, 0x00, 0x00, 0x04, 0x00, 0x00, 0x00,
  0x00, 0x00, 0x06, 0x00, 0x08, 0x00, 0x04, 0x00, 0x06, 0x00, 0x00, 0x00,
  0x00, 0x00, 0x80, 0x3f, 0x01, 0x00, 0x00, 0x00, 0x1e, 0x00, 0x00, 0x00,
  0x01, 0x00, 0x00, 0x00, 0x1d, 0x00, 0x00, 0x00, 0xc6, 0xfd, 0xff, 0xff,
  0x14, 0x00, 0x00, 0x00, 0x00, 0x00, 0x00, 0x08, 0x10, 0x00, 0x00, 0x00,
  0x14, 0x00, 0x00, 0x00, 0x03, 0x00, 0x00, 0x00, 0xa4, 0xe9, 0xff, 0xff,
  0x01, 0x00, 0x00, 0x00, 0x1d, 0x00, 0x00, 0x00, 0x03, 0x00, 0x00, 0x00,
  0x1c, 0x00, 0x00, 0x00, 0x09, 0x00, 0x00, 0x00, 0x08, 0x00, 0x00, 0x00,
  0x9e, 0xfd, 0xff, 0xff, 0x08, 0x00, 0x00, 0x00, 0x0c, 0x00, 0x00, 0x00,
  0x01, 0x00, 0x00, 0x00, 0x1c, 0x00, 0x00, 0x00, 0x02, 0x00, 0x00, 0x00,
  0x1b, 0x00, 0x00, 0x00, 0x07, 0x00, 0x00, 0x00, 0x1a, 0xfe, 0xff, 0xff,
  0x14, 0x00, 0x00, 0x00, 0x00, 0x00, 0x00, 0x05, 0x20, 0x00, 0x00, 0x00,
  0x24, 0x00, 0x00, 0x00, 0x02, 0x00, 0x00, 0x00, 0x86, 0xfe, 0xff, 0xff,
  0x02, 0x00, 0x00, 0x00, 0x01, 0x00, 0x00, 0x00, 0x02, 0x00, 0x00, 0x00,
  0x01, 0x00, 0x00, 0x00, 0x01, 0x00, 0x00, 0x00, 0x1b, 0x00, 0x00, 0x00,
  0x01, 0x00, 0x00, 0x00, 0x1a, 0x00, 0x00, 0x00, 0xfa, 0xfd, 0xff, 0xff,
  0x08, 0x00, 0x00, 0x00, 0x0c, 0x00, 0x00, 0x00, 0x01, 0x00, 0x00, 0x00,
  0x1a, 0x00, 0x00, 0x00, 0x02, 0x00, 0x00, 0x00, 0x19, 0x00, 0x00, 0x00,
  0x06, 0x00, 0x00, 0x00, 0x76, 0xfe, 0xff, 0xff, 0x14, 0x00, 0x00, 0x00,
  0x00, 0x00, 0x00, 0x01, 0x1c, 0x00, 0x00, 0x00, 0x20, 0x00, 0x00, 0x00,
  0x01, 0x00, 0x00, 0x00, 0x68, 0xfe, 0xff, 0xff, 0x00, 0x00, 0x00, 0x01,
  0x01, 0x00, 0x00, 0x00, 0x01, 0x00, 0x00, 0x00, 0x01, 0x00, 0x00, 0x00,
  0x19, 0x00, 0x00, 0x00, 0x03, 0x00, 0x00, 0x00, 0x18, 0x00, 0x00, 0x00,
  0x0b, 0x00, 0x00, 0x00, 0x0a, 0x00, 0x00, 0x00, 0x5a, 0xfe, 0xff, 0xff,
  0x08, 0x00, 0x00, 0x00, 0x0c, 0x00, 0x00, 0x00, 0x01, 0x00, 0x00, 0x00,
  0x18, 0x00, 0x00, 0x00, 0x02, 0x00, 0x00, 0x00, 0x17, 0x00, 0x00, 0x00,
  0x05, 0x00, 0x00, 0x00, 0xd6, 0xfe, 0xff, 0xff, 0x14, 0x00, 0x00, 0x00,
  0x00, 0x00, 0x00, 0x05, 0x20, 0x00, 0x00, 0x00, 0x24, 0x00, 0x00, 0x00,
  0x02, 0x00, 0x00, 0x00, 0x42, 0xff, 0xff, 0xff, 0x02, 0x00, 0x00, 0x00,
  0x01, 0x00, 0x00, 0x00, 0x02, 0x00, 0x00, 0x00, 0x01, 0x00, 0x00, 0x00,
  0x01, 0x00, 0x00, 0x00, 0x17, 0x00, 0x00, 0x00, 0x01, 0x00, 0x00, 0x00,
  0x16, 0x00, 0x00, 0x00, 0xb6, 0xfe, 0xff, 0xff, 0x08, 0x00, 0x00, 0x00,
  0x0c, 0x00, 0x00, 0x00, 0x01, 0x00, 0x00, 0x00, 0x16, 0x00, 0x00, 0x00,
  0x02, 0x00, 0x00, 0x00, 0x15, 0x00, 0x00, 0x00, 0x04, 0x00, 0x00, 0x00,
  0x32, 0xff, 0xff, 0xff, 0x14, 0x00, 0x00, 0x00, 0x00, 0x00, 0x00, 0x01,
  0x1c, 0x00, 0x00, 0x00, 0x20, 0x00, 0x00, 0x00, 0x01, 0x00, 0x00, 0x00,
  0x24, 0xff, 0xff, 0xff, 0x00, 0x00, 0x00, 0x01, 0x01, 0x00, 0x00, 0x00,
  0x01, 0x00, 0x00, 0x00, 0x01, 0x00, 0x00, 0x00, 0x15, 0x00, 0x00, 0x00,
  0x03, 0x00, 0x00, 0x00, 0x14, 0x00, 0x00, 0x00, 0x0d, 0x00, 0x00, 0x00,
  0x0c, 0x00, 0x00, 0x00, 0x16, 0xff, 0xff, 0xff, 0x08, 0x00, 0x00, 0x00,
  0x0c, 0x00, 0x00, 0x00, 0x01, 0x00, 0x00, 0x00, 0x14, 0x00, 0x00, 0x00,
  0x02, 0x00, 0x00, 0x00, 0x13, 0x00, 0x00, 0x00, 0x03, 0x00, 0x00, 0x00,
  0x92, 0xff, 0xff, 0xff, 0x24, 0x00, 0x00, 0x00, 0x00, 0x00, 0x00, 0x05,
  0x30, 0x00, 0x00, 0x00, 0x34, 0x00, 0x00, 0x00, 0x02, 0x00, 0x00, 0x00,
  0x00, 0x00, 0x0e, 0x00, 0x14, 0x00, 0x00, 0x00, 0x10, 0x00, 0x0c, 0x00,
  0x08, 0x00, 0x04, 0x00, 0x0e, 0x00, 0x00, 0x00, 0x02, 0x00, 0x00, 0x00,
  0x01, 0x00, 0x00, 0x00, 0x02, 0x00, 0x00, 0x00, 0x01, 0x00, 0x00, 0x00,
  0x01, 0x00, 0x00, 0x00, 0x13, 0x00, 0x00, 0x00, 0x01, 0x00, 0x00, 0x00,
  0x12, 0x00, 0x00, 0x00, 0x82, 0xff, 0xff, 0xff, 0x08, 0x00, 0x00, 0x00,
  0x0c, 0x00, 0x00, 0x00, 0x01, 0x00, 0x00, 0x00, 0x12, 0x00, 0x00, 0x00,
  0x02, 0x00, 0x00, 0x00, 0x11, 0x00, 0x00, 0x00, 0x02, 0x00, 0x00, 0x00,
  0x00, 0x00, 0x0e, 0x00, 0x18, 0x00, 0x14, 0x00, 0x10, 0x00, 0x0c, 0x00,
  0x0b, 0x00, 0x04, 0x00, 0x0e, 0x00, 0x00, 0x00, 0x20, 0x00, 0x00, 0x00,
  0x00, 0x00, 0x00, 0x01, 0x28, 0x00, 0x00, 0x00, 0x2c, 0x00, 0x00, 0x00,
  0x01, 0x00, 0x00, 0x00, 0x0c, 0x00, 0x10, 0x00, 0x00, 0x00, 0x0c, 0x00,
  0x08, 0x00, 0x07, 0x00, 0x0c, 0x00, 0x00, 0x00, 0x00, 0x00, 0x00, 0x01,
  0x01, 0x00, 0x00, 0x00, 0x01, 0x00, 0x00, 0x00, 0x01, 0x00, 0x00, 0x00,
  0x11, 0x00, 0x00, 0x00, 0x03, 0x00, 0x00, 0x00, 0x10, 0x00, 0x00, 0x00,
  0x0f, 0x00, 0x00, 0x00, 0x0e, 0x00, 0x00, 0x00, 0x00, 0x00, 0x0a, 0x00,
  0x0c, 0x00, 0x00, 0x00, 0x08, 0x00, 0x04, 0x00, 0x0a, 0x00, 0x00, 0x00,
  0x08, 0x00, 0x00, 0x00, 0x0c, 0x00, 0x00, 0x00, 0x01, 0x00, 0x00, 0x00,
  0x10, 0x00, 0x00, 0x00, 0x02, 0x00, 0x00, 0x00, 0x00, 0x00, 0x00, 0x00,
  0x01, 0x00, 0x00, 0x00, 0x01, 0x00, 0x00, 0x00, 0x1e, 0x00, 0x00, 0x00,
  0x01, 0x00, 0x00, 0x00, 0x00, 0x00, 0x00, 0x00, 0x1f, 0x00, 0x00, 0x00,
  0xf0, 0x13, 0x00, 0x00, 0x80, 0x13, 0x00, 0x00, 0x2c, 0x13, 0x00, 0x00,
  0xd4, 0x12, 0x00, 0x00, 0x7c, 0x12, 0x00, 0x00, 0x24, 0x12, 0x00, 0x00,
  0xcc, 0x11, 0x00, 0x00, 0x80, 0x11, 0x00, 0x00, 0x04, 0x11, 0x00, 0x00,
  0x98, 0x10, 0x00, 0x00, 0xcc, 0x0f, 0x00, 0x00, 0x00, 0x0f, 0x00, 0x00,
  0xd4, 0x0d, 0x00, 0x00, 0xa8, 0x0c, 0x00, 0x00, 0xbc, 0x0a, 0x00, 0x00,
  0xd0, 0x08, 0x00, 0x00, 0x4c, 0x08, 0x00, 0x00, 0x60, 0x07, 0x00, 0x00,
  0xdc, 0x06, 0x00, 0x00, 0x60, 0x06, 0x00, 0x00, 0xdc, 0x05, 0x00, 0x00,
  0xe0, 0x04, 0x00, 0x00, 0x5c, 0x04, 0x00, 0x00, 0xe0, 0x03, 0x00, 0x00,
  0x5c, 0x03, 0x00, 0x00, 0x60, 0x02, 0x00, 0x00, 0xdc, 0x01, 0x00, 0x00,
  0x60, 0x01, 0x00, 0x00, 0xf4, 0x00, 0x00, 0x00, 0x70, 0x00, 0x00, 0x00,
  0x04, 0x00, 0x00, 0x00, 0xa2, 0xec, 0xff, 0xff, 0x00, 0x00, 0x00, 0x01,
  0x14, 0x00, 0x00, 0x00, 0x30, 0x00, 0x00, 0x00, 0x1f, 0x00, 0x00, 0x00,
  0x00, 0x00, 0x00, 0x09, 0x44, 0x00, 0x00, 0x00, 0x8c, 0xec, 0xff, 0xff,
  0x08, 0x00, 0x00, 0x00, 0x10, 0x00, 0x00, 0x00, 0x01, 0x00, 0x00, 0x00,
  0x80, 0xff, 0xff, 0xff, 0xff, 0xff, 0xff, 0xff, 0x01, 0x00, 0x00, 0x00,
  0x00, 0x00, 0x80, 0x3b, 0x19, 0x00, 0x00, 0x00, 0x53, 0x74, 0x61, 0x74,
  0x65, 0x66, 0x75, 0x6c, 0x50, 0x61, 0x72, 0x74, 0x69, 0x74, 0x69, 0x6f,
  0x6e, 0x65, 0x64, 0x43, 0x61, 0x6c, 0x6c, 0x3a, 0x30, 0x00, 0x00, 0x00,
  0x02, 0x00, 0x00, 0x00, 0x01, 0x00, 0x00, 0x00, 0x06, 0x00, 0x00, 0x00,
  0x0a, 0xed, 0xff, 0xff, 0x00, 0x00, 0x00, 0x01, 0x14, 0x00, 0x00, 0x00,
  0x30, 0x00, 0x00, 0x00, 0x1e, 0x00, 0x00, 0x00, 0x00, 0x00, 0x00, 0x09,
  0x5c, 0x00, 0x00, 0x00, 0xf4, 0xec, 0xff, 0xff, 0x08, 0x00, 0x00, 0x00,
  0x10, 0x00, 0x00, 0x00, 0x01, 0x00, 0x00, 0x00, 0x28, 0x00, 0x00, 0x00,
  0x00, 0x00, 0x00, 0x00, 0x01, 0x00, 0x00, 0x00, 0xe3, 0x3a, 0x77, 0x3e,
  0x32, 0x00, 0x00, 0x00, 0x73, 0x65, 0x71, 0x75, 0x65, 0x6e, 0x74, 0x69,
  0x61, 0x6c, 0x2f, 0x79, 0x5f, 0x70, 0x72, 0x65, 0x64, 0x2f, 0x4d, 0x61,
  0x74, 0x4d, 0x75, 0x6c, 0x3b, 0x73, 0x65, 0x71, 0x75, 0x65, 0x6e, 0x74,
  0x69, 0x61, 0x6c, 0x2f, 0x79, 0x5f, 0x70, 0x72, 0x65, 0x64, 0x2f, 0x42,
  0x69, 0x61, 0x73, 0x41, 0x64, 0x64, 0x00, 0x00, 0x02, 0x00, 0x00, 0x00,
  0x01, 0x00, 0x00, 0x00, 0x06, 0x00, 0x00, 0x00, 0x8a, 0xed, 0xff, 0xff,
  0x00, 0x00, 0x00, 0x01, 0x14, 0x00, 0x00, 0x00, 0x30, 0x00, 0x00, 0x00,
  0x1d, 0x00, 0x00, 0x00, 0x00, 0x00, 0x00, 0x09, 0x44, 0x00, 0x00, 0x00,
  0x74, 0xed, 0xff, 0xff, 0x08, 0x00, 0x00, 0x00, 0x10, 0x00, 0x00, 0x00,
  0x01, 0x00, 0x00, 0x00, 0x80, 0xff, 0xff, 0xff, 0xff, 0xff, 0xff, 0xff,
  0x01, 0x00, 0x00, 0x00, 0x86, 0x2d, 0x93, 0x3d, 0x1a, 0x00, 0x00, 0x00,
  0x73, 0x65, 0x71, 0x75, 0x65, 0x6e, 0x74, 0x69, 0x61, 0x6c, 0x2f, 0x66,
  0x6c, 0x61, 0x74, 0x74, 0x65, 0x6e, 0x2f, 0x52, 0x65, 0x73, 0x68, 0x61,
  0x70, 0x65, 0x00, 0x00, 0x02, 0x00, 0x00, 0x00, 0x01, 0x00, 0x00, 0x00,
  0x38, 0x00, 0x00, 0x00, 0xf2, 0xed, 0xff, 0xff, 0x00, 0x00, 0x00, 0x01,
  0x14, 0x00, 0x00, 0x00, 0x30, 0x00, 0x00, 0x00, 0x1c, 0x00, 0x00, 0x00,
  0x00, 0x00, 0x00, 0x09, 0x4c, 0x00, 0x00, 0x00, 0xdc, 0xed, 0xff, 0xff,
  0x08, 0x00, 0x00, 0x00, 0x10, 0x00, 0x00, 0x00, 0x01, 0x00, 0x00, 0x00,
  0x80, 0xff, 0xff, 0xff, 0xff, 0xff, 0xff, 0xff, 0x01, 0x00, 0x00, 0x00,
  0x86, 0x2d, 0x93, 0x3d, 0x22, 0x00, 0x00, 0x00, 0x73, 0x65, 0x71, 0x75,
  0x65, 0x6e, 0x74, 0x69, 0x61, 0x6c, 0x2f, 0x6d, 0x61, 0x78, 0x5f, 0x70,
  0x6f, 0x6f, 0x6c, 0x69, 0x6e, 0x67, 0x31, 0x64, 0x5f, 0x32, 0x2f, 0x4d,
  0x61, 0x78, 0x50, 0x6f, 0x6f, 0x6c, 0x00, 0x00, 0x04, 0x00, 0x00, 0x00,
  0x01, 0x00, 0x00, 0x00, 0x07, 0x00, 0x00, 0x00, 0x01, 0x00, 0x00, 0x00,
  0x08, 0x00, 0x00, 0x00, 0x6a, 0xee, 0xff, 0xff, 0x00, 0x00, 0x00, 0x01,
  0x14, 0x00, 0x00, 0x00, 0x34, 0x00, 0x00, 0x00, 0x1b, 0x00, 0x00, 0x00,
  0x00, 0x00, 0x00, 0x09, 0x54, 0x00, 0x00, 0x00, 0x54, 0xee, 0xff, 0xff,
  0x08, 0x00, 0x00, 0x00, 0x14, 0x00, 0x00, 0x00, 0x01, 0x00, 0x00, 0x00,
  0x80, 0xff, 0xff, 0xff, 0xff, 0xff, 0xff, 0xff, 0x00, 0x00, 0x00, 0x00,
  0x01, 0x00, 0x00, 0x00, 0x86, 0x2d, 0x93, 0x3d, 0x26, 0x00, 0x00, 0x00,
  0x73, 0x65, 0x71, 0x75, 0x65, 0x6e, 0x74, 0x69, 0x61, 0x6c, 0x2f, 0x6d,
  0x61, 0x78, 0x5f, 0x70, 0x6f, 0x6f, 0x6c, 0x69, 0x6e, 0x67, 0x31, 0x64,
  0x5f, 0x32, 0x2f, 0x45, 0x78, 0x70, 0x61, 0x6e, 0x64, 0x44, 0x69, 0x6d,
  0x73, 0x31, 0x00, 0x00, 0x04, 0x00, 0x00, 0x00, 0x01, 0x00, 0x00, 0x00,
  0x0d, 0x00, 0x00, 0x00, 0x01, 0x00, 0x00, 0x00, 0x08, 0x00, 0x00, 0x00,
  0xea, 0xee, 0xff, 0xff, 0x00, 0x00, 0x00, 0x01, 0x14, 0x00, 0x00, 0x00,
  0x34, 0x00, 0x00, 0x00, 0x1a, 0x00, 0x00, 0x00, 0x00, 0x00, 0x00, 0x09,
  0xcc, 0x00, 0x00, 0x00, 0xd4, 0xee, 0xff, 0xff, 0x08, 0x00, 0x00, 0x00,
  0x14, 0x00, 0x00, 0x00, 0x01, 0x00, 0x00, 0x00, 0x80, 0xff, 0xff, 0xff,
  0xff, 0xff, 0xff, 0xff, 0x00, 0x00, 0x00, 0x00, 0x01, 0x00, 0x00, 0x00,
  0x86, 0x2d, 0x93, 0x3d, 0x9d, 0x00, 0x00, 0x00, 0x73, 0x65, 0x71, 0x75,
  0x65, 0x6e, 0x74, 0x69, 0x61, 0x6c, 0x2f, 0x63, 0x6f, 0x6e, 0x76, 0x31,
  0x64, 0x5f, 0x32, 0x2f, 0x52, 0x65, 0x6c, 0x75, 0x3b, 0x73, 0x65, 0x71,
  0x75, 0x65, 0x6e, 0x74, 0x69, 0x61, 0x6c, 0x2f, 0x63, 0x6f, 0x6e, 0x76,
  0x31, 0x64, 0x5f, 0x32, 0x2f, 0x42, 0x69, 0x61, 0x73, 0x41, 0x64, 0x64,
  0x3b, 0x73, 0x65, 0x71, 0x75, 0x65, 0x6e, 0x74, 0x69, 0x61, 0x6c, 0x2f,
  0x63, 0x6f, 0x6e, 0x76, 0x31, 0x64, 0x5f, 0x32, 0x2f, 0x43, 0x6f, 0x6e,
  0x76, 0x31, 0x44, 0x2f, 0x53, 0x71, 0x75, 0x65, 0x65, 0x7a, 0x65, 0x3b,
  0x73, 0x65, 0x71, 0x75, 0x65, 0x6e, 0x74, 0x69, 0x61, 0x6c, 0x2f, 0x63,
  0x6f, 0x6e, 0x76, 0x31, 0x64, 0x5f, 0x32, 0x2f, 0x42, 0x69, 0x61, 0x73,
  0x41, 0x64, 0x64, 0x2f, 0x52, 0x65, 0x61, 0x64, 0x56, 0x61, 0x72, 0x69,
  0x61, 0x62, 0x6c, 0x65, 0x4f, 0x70, 0x3b, 0x73, 0x65, 0x71, 0x75, 0x65,
  0x6e, 0x74, 0x69, 0x61, 0x6c, 0x2f, 0x63, 0x6f, 0x6e, 0x76, 0x31, 0x64,
  0x5f, 0x32, 0x2f, 0x43, 0x6f, 0x6e, 0x76, 0x31, 0x44, 0x00, 0x00, 0x00,
  0x04, 0x00, 0x00, 0x00, 0x01, 0x00, 0x00, 0x00, 0x01, 0x00, 0x00, 0x00,
  0x0d, 0x00, 0x00, 0x00, 0x08, 0x00, 0x00, 0x00, 0xe2, 0xef, 0xff, 0xff,
  0x00, 0x00, 0x00, 0x01, 0x14, 0x00, 0x00, 0x00, 0x34, 0x00, 0x00, 0x00,
  0x19, 0x00, 0x00, 0x00, 0x00, 0x00, 0x00, 0x09, 0x54, 0x00, 0x00, 0x00,
  0xcc, 0xef, 0xff, 0xff, 0x08, 0x00, 0x00, 0x00, 0x14, 0x00, 0x00, 0x00,
  0x01, 0x00, 0x00, 0x00, 0x80, 0xff, 0xff, 0xff, 0xff, 0xff, 0xff, 0xff,
  0x00, 0x00, 0x00, 0x00, 0x01, 0x00, 0x00, 0x00, 0x61, 0x35, 0x49, 0x3d,
  0x26, 0x00, 0x00, 0x00, 0x73, 0x65, 0x71, 0x75, 0x65, 0x6e, 0x74, 0x69,
  0x61, 0x6c, 0x2f, 0x63, 0x6f, 0x6e, 0x76, 0x31, 0x64, 0x5f, 0x32, 0x2f,
  0x43, 0x6f, 0x6e, 0x76, 0x31, 0x44, 0x2f, 0x45, 0x78, 0x70, 0x61, 0x6e,
  0x64, 0x44, 0x69, 0x6d, 0x73, 0x31, 0x00, 0x00, 0x04, 0x00, 0x00, 0x00,
  0x01, 0x00, 0x00, 0x00, 0x01, 0x00, 0x00, 0x00, 0x0d, 0x00, 0x00, 0x00,
  0x10, 0x00, 0x00, 0x00, 0x62, 0xf0, 0xff, 0xff, 0x00, 0x00, 0x00, 0x01,
  0x14, 0x00, 0x00, 0x00, 0x30, 0x00, 0x00, 0x00, 0x18, 0x00, 0x00, 0x00,
  0x00, 0x00, 0x00, 0x09, 0x4c, 0x00, 0x00, 0x00, 0x4c, 0xf0, 0xff, 0xff,
  0x08, 0x00, 0x00, 0x00, 0x10, 0x00, 0x00, 0x00, 0x01, 0x00, 0x00, 0x00,
  0x80, 0xff, 0xff, 0xff, 0xff, 0xff, 0xff, 0xff, 0x01, 0x00, 0x00, 0x00,
  0x61, 0x35, 0x49, 0x3d, 0x22, 0x00, 0x00, 0x00, 0x73, 0x65, 0x71, 0x75,
  0x65, 0x6e, 0x74, 0x69, 0x61, 0x6c, 0x2f, 0x6d, 0x61, 0x78, 0x5f, 0x70,
  0x6f, 0x6f, 0x6c, 0x69, 0x6e, 0x67, 0x31, 0x64, 0x5f, 0x31, 0x2f, 0x4d,
  0x61, 0x78, 0x50, 0x6f, 0x6f, 0x6c, 0x00, 0x00, 0x04, 0x00, 0x00, 0x00,
  0x01, 0x00, 0x00, 0x00, 0x0d, 0x00, 0x00, 0x00, 0x01, 0x00, 0x00, 0x00,
  0x10, 0x00, 0x00, 0x00, 0xda, 0xf0, 0xff, 0xff, 0x00, 0x00, 0x00, 0x01,
  0x14, 0x00, 0x00, 0x00, 0x34, 0x00, 0x00, 0x00, 0x17, 0x00, 0x00, 0x00,
  0x00, 0x00, 0x00, 0x09, 0x54, 0x00, 0x00, 0x00, 0xc4, 0xf0, 0xff, 0xff,
  0x08, 0x00, 0x00, 0x00, 0x14, 0x00, 0x00, 0x00, 0x01, 0x00, 0x00, 0x00,
  0x80, 0xff, 0xff, 0xff, 0xff, 0xff, 0xff, 0xff, 0x00, 0x00, 0x00, 0x00,
  0x01, 0x00, 0x00, 0x00, 0x61, 0x35, 0x49, 0x3d, 0x26, 0x00, 0x00, 0x00,
  0x73, 0x65, 0x71, 0x75, 0x65, 0x6e, 0x74, 0x69, 0x61, 0x6c, 0x2f, 0x6d,
  0x61, 0x78, 0x5f, 0x70, 0x6f, 0x6f, 0x6c, 0x69, 0x6e, 0x67, 0x31, 0x64,
  0x5f, 0x31, 0x2f, 0x45, 0x78, 0x70, 0x61, 0x6e, 0x64, 0x44, 0x69, 0x6d,
  0x73, 0x31, 0x00, 0x00, 0x04, 0x00, 0x00, 0x00, 0x01, 0x00, 0x00, 0x00,
  0x19, 0x00, 0x00, 0x00, 0x01, 0x00, 0x00, 0x00, 0x10, 0x00, 0x00, 0x00,
  0x5a, 0xf1, 0xff, 0xff, 0x00, 0x00, 0x00, 0x01, 0x14, 0x00, 0x00, 0x00,
  0x34, 0x00, 0x00, 0x00, 0x16, 0x00, 0x00, 0x00, 0x00, 0x00, 0x00, 0x09,
  0xcc, 0x00, 0x00, 0x00, 0x44, 0xf1, 0xff, 0xff, 0x08, 0x00, 0x00, 0x00,
  0x14, 0x00, 0x00, 0x00, 0x01, 0x00, 0x00, 0x00, 0x80, 0xff, 0xff, 0xff,
  0xff, 0xff, 0xff, 0xff, 0x00, 0x00, 0x00, 0x00, 0x01, 0x00, 0x00, 0x00,
  0x61, 0x35, 0x49, 0x3d, 0x9d, 0x00, 0x00, 0x00, 0x73, 0x65, 0x71, 0x75,
  0x65, 0x6e, 0x74, 0x69, 0x61, 0x6c, 0x2f, 0x63, 0x6f, 0x6e, 0x76, 0x31,
  0x64, 0x5f, 0x31, 0x2f, 0x52, 0x65, 0x6c, 0x75, 0x3b, 0x73, 0x65, 0x71,
  0x75, 0x65, 0x6e, 0x74, 0x69, 0x61, 0x6c, 0x2f, 0x63, 0x6f, 0x6e, 0x76,
  0x31, 0x64, 0x5f, 0x31, 0x2f, 0x42, 0x69, 0x61, 0x73, 0x41, 0x64, 0x64,
  0x3b, 0x73, 0x65, 0x71, 0x75, 0x65, 0x6e, 0x74, 0x69, 0x61, 0x6c, 0x2f,
  0x63, 0x6f, 0x6e, 0x76, 0x31, 0x64, 0x5f, 0x31, 0x2f, 0x43, 0x6f, 0x6e,
  0x76, 0x31, 0x44, 0x2f, 0x53, 0x71, 0x75, 0x65, 0x65, 0x7a, 0x65, 0x3b,
  0x73, 0x65, 0x71, 0x75, 0x65, 0x6e, 0x74, 0x69, 0x61, 0x6c, 0x2f, 0x63,
  0x6f, 0x6e, 0x76, 0x31, 0x64, 0x5f, 0x31, 0x2f, 0x42, 0x69, 0x61, 0x73,
  0x41, 0x64, 0x64, 0x2f, 0x52, 0x65, 0x61, 0x64, 0x56, 0x61, 0x72, 0x69,
  0x61, 0x62, 0x6c, 0x65, 0x4f, 0x70, 0x3b, 0x73, 0x65, 0x71, 0x75, 0x65,
  0x6e, 0x74, 0x69, 0x61, 0x6c, 0x2f, 0x63, 0x6f, 0x6e, 0x76, 0x31, 0x64,
  0x5f, 0x31, 0x2f, 0x43, 0x6f, 0x6e, 0x76, 0x31, 0x44, 0x00, 0x00, 0x00,
  0x04, 0x00, 0x00, 0x00, 0x01, 0x00, 0x00, 0x00, 0x01, 0x00, 0x00, 0x00,
  0x19, 0x00, 0x00, 0x00, 0x10, 0x00, 0x00, 0x00, 0x52, 0xf2, 0xff, 0xff,
  0x00, 0x00, 0x00, 0x01, 0x14, 0x00, 0x00, 0x00, 0x34, 0x00, 0x00, 0x00,
  0x15, 0x00, 0x00, 0x00, 0x00, 0x00, 0x00, 0x09, 0x54, 0x00, 0x00, 0x00,
  0x3c, 0xf2, 0xff, 0xff, 0x08, 0x00, 0x00, 0x00, 0x14, 0x00, 0x00, 0x00,
  0x01, 0x00, 0x00, 0x00, 0x80, 0xff, 0xff, 0xff, 0xff, 0xff, 0xff, 0xff,
  0x00, 0x00, 0x00, 0x00, 0x01, 0x00, 0x00, 0x00, 0xc4, 0x45, 0x22, 0x3d,
  0x26, 0x00, 0x00, 0x00, 0x73, 0x65, 0x71, 0x75, 0x65, 0x6e, 0x74, 0x69,
  0x61, 0x6c, 0x2f, 0x63, 0x6f, 0x6e, 0x76, 0x31, 0x64, 0x5f, 0x31, 0x2f,
  0x43, 0x6f, 0x6e, 0x76, 0x31, 0x44, 0x2f, 0x45, 0x78, 0x70, 0x61, 0x6e,
  0x64, 0x44, 0x69, 0x6d, 0x73, 0x31, 0x00, 0x00, 0x04, 0x00, 0x00, 0x00,
  0x01, 0x00, 0x00, 0x00, 0x01, 0x00, 0x00, 0x00, 0x19, 0x00, 0x00, 0x00,
  0x20, 0x00, 0x00, 0x00, 0xd2, 0xf2, 0xff, 0xff, 0x00, 0x00, 0x00, 0x01,
  0x14, 0x00, 0x00, 0x00, 0x30, 0x00, 0x00, 0x00, 0x14, 0x00, 0x00, 0x00,
  0x00, 0x00, 0x00, 0x09, 0x4c, 0x00, 0x00, 0x00, 0xbc, 0xf2, 0xff, 0xff,
  0x08, 0x00, 0x00, 0x00, 0x10, 0x00, 0x00, 0x00, 0x01, 0x00, 0x00, 0x00,
  0x80, 0xff, 0xff, 0xff, 0xff, 0xff, 0xff, 0xff, 0x01, 0x00, 0x00, 0x00,
  0xc4, 0x45, 0x22, 0x3d, 0x20, 0x00, 0x00, 0x00, 0x73, 0x65, 0x71, 0x75,
  0x65, 0x6e, 0x74, 0x69, 0x61, 0x6c, 0x2f, 0x6d, 0x61, 0x78, 0x5f, 0x70,
  0x6f, 0x6f, 0x6c, 0x69, 0x6e, 0x67, 0x31, 0x64, 0x2f, 0x4d, 0x61, 0x78,
  0x50, 0x6f, 0x6f, 0x6c, 0x00, 0x00, 0x00, 0x00, 0x04, 0x00, 0x00, 0x00,
  0x01, 0x00, 0x00, 0x00, 0x19, 0x00, 0x00, 0x00, 0x01, 0x00, 0x00, 0x00,
  0x20, 0x00, 0x00, 0x00, 0x4a, 0xf3, 0xff, 0xff, 0x00, 0x00, 0x00, 0x01,
  0x14, 0x00, 0x00, 0x00, 0x34, 0x00, 0x00, 0x00, 0x13, 0x00, 0x00, 0x00,
  0x00, 0x00, 0x00, 0x09, 0x54, 0x00, 0x00, 0x00, 0x34, 0xf3, 0xff, 0xff,
  0x08, 0x00, 0x00, 0x00, 0x14, 0x00, 0x00, 0x00, 0x01, 0x00, 0x00, 0x00,
  0x80, 0xff, 0xff, 0xff, 0xff, 0xff, 0xff, 0xff, 0x00, 0x00, 0x00, 0x00,
  0x01, 0x00, 0x00, 0x00, 0xc4, 0x45, 0x22, 0x3d, 0x24, 0x00, 0x00, 0x00,
  0x73, 0x65, 0x71, 0x75, 0x65, 0x6e, 0x74, 0x69, 0x61, 0x6c, 0x2f, 0x6d,
  0x61, 0x78, 0x5f, 0x70, 0x6f, 0x6f, 0x6c, 0x69, 0x6e, 0x67, 0x31, 0x64,
  0x2f, 0x45, 0x78, 0x70, 0x61, 0x6e, 0x64, 0x44, 0x69, 0x6d, 0x73, 0x31,
  0x00, 0x00, 0x00, 0x00, 0x04, 0x00, 0x00, 0x00, 0x01, 0x00, 0x00, 0x00,
  0x32, 0x00, 0x00, 0x00, 0x01, 0x00, 0x00, 0x00, 0x20, 0x00, 0x00, 0x00,
  0xca, 0xf3, 0xff, 0xff, 0x00, 0x00, 0x00, 0x01, 0x14, 0x00, 0x00, 0x00,
  0x30, 0x00, 0x00, 0x00, 0x12, 0x00, 0x00, 0x00, 0x00, 0x00, 0x00, 0x09,
  0xbc, 0x00, 0x00, 0x00, 0xb4, 0xf3, 0xff, 0xff, 0x08, 0x00, 0x00, 0x00,
  0x10, 0x00, 0x00, 0x00, 0x01, 0x00, 0x00, 0x00, 0x80, 0xff, 0xff, 0xff,
  0xff, 0xff, 0xff, 0xff, 0x01, 0x00, 0x00, 0x00, 0xc4, 0x45, 0x22, 0x3d,
  0x93, 0x00, 0x00, 0x00, 0x73, 0x65, 0x71, 0x75, 0x65, 0x6e, 0x74, 0x69,
  0x61, 0x6c, 0x2f, 0x63, 0x6f, 0x6e, 0x76, 0x31, 0x64, 0x2f, 0x52, 0x65,
  0x6c, 0x75, 0x3b, 0x73, 0x65, 0x71, 0x75, 0x65, 0x6e, 0x74, 0x69, 0x61,
  0x6c, 0x2f, 0x63, 0x6f, 0x6e, 0x76, 0x31, 0x64, 0x2f, 0x42, 0x69, 0x61,
  0x73, 0x41, 0x64, 0x64, 0x3b, 0x73, 0x65, 0x71, 0x75, 0x65, 0x6e, 0x74,
  0x69, 0x61, 0x6c, 0x2f, 0x63, 0x6f, 0x6e, 0x76, 0x31, 0x64, 0x2f, 0x43,
  0x6f, 0x6e, 0x76, 0x31, 0x44, 0x2f, 0x53, 0x71, 0x75, 0x65, 0x65, 0x7a,
  0x65, 0x3b, 0x73, 0x65, 0x71, 0x75, 0x65, 0x6e, 0x74, 0x69, 0x61, 0x6c,
  0x2f, 0x63, 0x6f, 0x6e, 0x76, 0x31, 0x64, 0x2f, 0x42, 0x69, 0x61, 0x73,
  0x41, 0x64, 0x64, 0x2f, 0x52, 0x65, 0x61, 0x64, 0x56, 0x61, 0x72, 0x69,
  0x61, 0x62, 0x6c, 0x65, 0x4f, 0x70, 0x3b, 0x73, 0x65, 0x71, 0x75, 0x65,
  0x6e, 0x74, 0x69, 0x61, 0x6c, 0x2f, 0x63, 0x6f, 0x6e, 0x76, 0x31, 0x64,
  0x2f, 0x43, 0x6f, 0x6e, 0x76, 0x31, 0x44, 0x00, 0x04, 0x00, 0x00, 0x00,
  0x01, 0x00, 0x00, 0x00, 0x01, 0x00, 0x00, 0x00, 0x32, 0x00, 0x00, 0x00,
  0x20, 0x00, 0x00, 0x00, 0xb2, 0xf4, 0xff, 0xff, 0x00, 0x00, 0x00, 0x01,
  0x14, 0x00, 0x00, 0x00, 0x34, 0x00, 0x00, 0x00, 0x11, 0x00, 0x00, 0x00,
  0x00, 0x00, 0x00, 0x09, 0x54, 0x00, 0x00, 0x00, 0x9c, 0xf4, 0xff, 0xff,
  0x08, 0x00, 0x00, 0x00, 0x14, 0x00, 0x00, 0x00, 0x01, 0x00, 0x00, 0x00,
  0x00, 0x00, 0x00, 0x00, 0x00, 0x00, 0x00, 0x00, 0x00, 0x00, 0x00, 0x00,
  0x01, 0x00, 0x00, 0x00, 0xc7, 0xa1, 0x51, 0x3d, 0x24, 0x00, 0x00, 0x00,
  0x73, 0x65, 0x71, 0x75, 0x65, 0x6e, 0x74, 0x69, 0x61, 0x6c, 0x2f, 0x63,
  0x6f, 0x6e, 0x76, 0x31, 0x64, 0x2f, 0x43, 0x6f, 0x6e, 0x76, 0x31, 0x44,
  0x2f, 0x45, 0x78, 0x70, 0x61, 0x6e, 0x64, 0x44, 0x69, 0x6d, 0x73, 0x31,
  0x00, 0x00, 0x00, 0x00, 0x04, 0x00, 0x00, 0x00, 0x01, 0x00, 0x00, 0x00,
  0x01, 0x00, 0x00, 0x00, 0x32, 0x00, 0x00, 0x00, 0x0d, 0x00, 0x00, 0x00,
  0x32, 0xf5, 0xff, 0xff, 0x00, 0x00, 0x00, 0x01, 0x14, 0x00, 0x00, 0x00,
  0xa8, 0x01, 0x00, 0x00, 0x10, 0x00, 0x00, 0x00, 0x00, 0x00, 0x00, 0x09,
  0xbc, 0x01, 0x00, 0x00, 0x1c, 0xf5, 0xff, 0xff, 0x08, 0x00, 0x00, 0x00,
  0x0c, 0x01, 0x00, 0x00, 0x20, 0x00, 0x00, 0x00, 0x00, 0x00, 0x00, 0x00,
  0x00, 0x00, 0x00, 0x00, 0x00, 0x00, 0x00, 0x00, 0x00, 0x00, 0x00, 0x00,
  0x00, 0x00, 0x00, 0x00, 0x00, 0x00, 0x00, 0x00, 0x00, 0x00, 0x00, 0x00,
  0x00, 0x00, 0x00, 0x00, 0x00, 0x00, 0x00, 0x00, 0x00, 0x00, 0x00, 0x00,
  0x00, 0x00, 0x00, 0x00, 0x00, 0x00, 0x00, 0x00, 0x00, 0x00, 0x00, 0x00,
  0x00, 0x00, 0x00, 0x00, 0x00, 0x00, 0x00, 0x00, 0x00, 0x00, 0x00, 0x00,
  0x00, 0x00, 0x00, 0x00, 0x00, 0x00, 0x00, 0x00, 0x00, 0x00, 0x00, 0x00,
  0x00, 0x00, 0x00, 0x00, 0x00, 0x00, 0x00, 0x00, 0x00, 0x00, 0x00, 0x00,
  0x00, 0x00, 0x00, 0x00, 0x00, 0x00, 0x00, 0x00, 0x00, 0x00, 0x00, 0x00,
  0x00, 0x00, 0x00, 0x00, 0x00, 0x00, 0x00, 0x00, 0x00, 0x00, 0x00, 0x00,
  0x00, 0x00, 0x00, 0x00, 0x00, 0x00, 0x00, 0x00, 0x00, 0x00, 0x00, 0x00,
  0x00, 0x00, 0x00, 0x00, 0x00, 0x00, 0x00, 0x00, 0x00, 0x00, 0x00, 0x00,
  0x00, 0x00, 0x00, 0x00, 0x00, 0x00, 0x00, 0x00, 0x00, 0x00, 0x00, 0x00,
  0x00, 0x00, 0x00, 0x00, 0x00, 0x00, 0x00, 0x00, 0x00, 0x00, 0x00, 0x00,
  0x00, 0x00, 0x00, 0x00, 0x00, 0x00, 0x00, 0x00, 0x00, 0x00, 0x00, 0x00,
  0x00, 0x00, 0x00, 0x00, 0x00, 0x00, 0x00, 0x00, 0x00, 0x00, 0x00, 0x00,
  0x00, 0x00, 0x00, 0x00, 0x00, 0x00, 0x00, 0x00, 0x00, 0x00, 0x00, 0x00,
  0x00, 0x00, 0x00, 0x00, 0x00, 0x00, 0x00, 0x00, 0x00, 0x00, 0x00, 0x00,
  0x00, 0x00, 0x00, 0x00, 0x00, 0x00, 0x00, 0x00, 0x00, 0x00, 0x00, 0x00,
  0x00, 0x00, 0x00, 0x00, 0x00, 0x00, 0x00, 0x00, 0x00, 0x00, 0x00, 0x00,
  0x00, 0x00, 0x00, 0x00, 0x00, 0x00, 0x00, 0x00, 0x00, 0x00, 0x00, 0x00,
  0x00, 0x00, 0x00, 0x00, 0x00, 0x00, 0x00, 0x00, 0x00, 0x00, 0x00, 0x00,
  0x00, 0x00, 0x00, 0x00, 0x20, 0x00, 0x00, 0x00, 0x27, 0xed, 0x62, 0x3b,
  0xc1, 0xfd, 0x91, 0x3b, 0xff, 0x29, 0xb4, 0x3b, 0x4b, 0x2f, 0x4b, 0x3b,
  0x75, 0x48, 0x98, 0x3b, 0x7c, 0xbd, 0x92, 0x3b, 0x1e, 0x18, 0x85, 0x3b,
  0xf6, 0x55, 0xa1, 0x3b, 0x7d, 0x7a, 0x8c, 0x3b, 0xab, 0x7e, 0xe2, 0x3b,
  0xf2, 0x58, 0x7d, 0x3b, 0xaf, 0xf8, 0xac, 0x3b, 0x45, 0x0f, 0x06, 0x3c,
  0x12, 0x28, 0xd4, 0x3b, 0x41, 0x00, 0x92, 0x3b, 0x91, 0x9a, 0x67, 0x3b,
  0xac, 0x63, 0x75, 0x3b, 0x7f, 0x6d, 0x98, 0x3b, 0x97, 0x6e, 0x99, 0x3b,
  0xd1, 0xb6, 0x49, 0x3b, 0x19, 0xc6, 0xc3, 0x3b, 0x4d, 0xde, 0xd8, 0x3b,
  0x99, 0xa7, 0x04, 0x3c, 0xed, 0xd5, 0xa6, 0x3b, 0xad, 0x3d, 0x9a, 0x3b,
  0x0f, 0xb8, 0x3d, 0x3b, 0x1b, 0x7f, 0x16, 0x3c, 0x3d, 0x2d, 0x13, 0x3c,
  0xda, 0x0f, 0xae, 0x3b, 0x5c, 0x1d, 0x88, 0x3b, 0xf2, 0x62, 0x95, 0x3b,
  0x7f, 0x18, 0x6d, 0x3b, 0x18, 0x00, 0x00, 0x00, 0x73, 0x65, 0x71, 0x75,
  0x65, 0x6e, 0x74, 0x69, 0x61, 0x6c, 0x2f, 0x63, 0x6f, 0x6e, 0x76, 0x31,
  0x64, 0x2f, 0x43, 0x6f, 0x6e, 0x76, 0x31, 0x44, 0x00, 0x00, 0x00, 0x00,
  0x04, 0x00, 0x00, 0x00, 0x20, 0x00, 0x00, 0x00, 0x01, 0x00, 0x00, 0x00,
  0x03, 0x00, 0x00, 0x00, 0x0d, 0x00, 0x00, 0x00, 0x1a, 0xf7, 0xff, 0xff,
  0x00, 0x00, 0x00, 0x01, 0x14, 0x00, 0x00, 0x00, 0xa4, 0x01, 0x00, 0x00,
  0x0f, 0x00, 0x00, 0x00, 0x00, 0x00, 0x00, 0x02, 0xc8, 0x01, 0x00, 0x00,
  0x04, 0xf7, 0xff, 0xff, 0x08, 0x00, 0x00, 0x00, 0x08, 0x01, 0x00, 0x00,
  0x20, 0x00, 0x00, 0x00, 0x00, 0x00, 0x00, 0x00, 0x00, 0x00, 0x00, 0x00,
  0x00, 0x00, 0x00, 0x00, 0x00, 0x00, 0x00, 0x00, 0x00, 0x00, 0x00, 0x00,
  0x00, 0x00, 0x00, 0x00, 0x00, 0x00, 0x00, 0x00, 0x00, 0x00, 0x00, 0x00,
  0x00, 0x00, 0x00, 0x00, 0x00, 0x00, 0x00, 0x00, 0x00, 0x00, 0x00, 0x00,
  0x00, 0x00, 0x00, 0x00, 0x00, 0x00, 0x00, 0x00, 0x00, 0x00, 0x00, 0x00,
  0x00, 0x00, 0x00, 0x00, 0x00, 0x00, 0x00, 0x00, 0x00, 0x00, 0x00, 0x00,
  0x00, 0x00, 0x00, 0x00, 0x00, 0x00, 0x00, 0x00, 0x00, 0x00, 0x00, 0x00,
  0x00, 0x00, 0x00, 0x00, 0x00, 0x00, 0x00, 0x00, 0x00, 0x00, 0x00, 0x00,
  0x00, 0x00, 0x00, 0x00, 0x00, 0x00, 0x00, 0x00, 0x00, 0x00, 0x00, 0x00,
  0x00, 0x00, 0x00, 0x00, 0x00, 0x00, 0x00, 0x00, 0x00, 0x00, 0x00, 0x00,
  0x00, 0x00, 0x00, 0x00, 0x00, 0x00, 0x00, 0x00, 0x00, 0x00, 0x00, 0x00,
  0x00, 0x00, 0x00, 0x00, 0x00, 0x00, 0x00, 0x00, 0x00, 0x00, 0x00, 0x00,
  0x00, 0x00, 0x00, 0x00, 0x00, 0x00, 0x00, 0x00, 0x00, 0x00, 0x00, 0x00,
  0x00, 0x00, 0x00, 0x00, 0x00, 0x00, 0x00, 0x00, 0x00, 0x00, 0x00, 0x00,
  0x00, 0x00, 0x00, 0x00, 0x00, 0x00, 0x00, 0x00, 0x00, 0x00, 0x00, 0x00,
  0x00, 0x00, 0x00, 0x00, 0x00, 0x00, 0x00, 0x00, 0x00, 0x00, 0x00, 0x00,
  0x00, 0x00, 0x00, 0x00, 0x00, 0x00, 0x00, 0x00, 0x00, 0x00, 0x00, 0x00,
  0x00, 0x00, 0x00, 0x00, 0x00, 0x00, 0x00, 0x00, 0x00, 0x00, 0x00, 0x00,
  0x00, 0x00, 0x00, 0x00, 0x00, 0x00, 0x00, 0x00, 0x00, 0x00, 0x00, 0x00,
  0x00, 0x00, 0x00, 0x00, 0x00, 0x00, 0x00, 0x00, 0x00, 0x00, 0x00, 0x00,
  0x00, 0x00, 0x00, 0x00, 0x00, 0x00, 0x00, 0x00, 0x00, 0x00, 0x00, 0x00,
  0x00, 0x00, 0x00, 0x00, 0x00, 0x00, 0x00, 0x00, 0x20, 0x00, 0x00, 0x00,
  0x04, 0xd3, 0x39, 0x39, 0xd9, 0x18, 0x6f, 0x39, 0x24, 0x88, 0x93, 0x39,
  0x03, 0x62, 0x26, 0x39, 0xc7, 0x66, 0x79, 0x39, 0xdb, 0x52, 0x70, 0x39,
  0x98, 0xf9, 0x59, 0x39, 0x22, 0x1d, 0x84, 0x39, 0x8d, 0x11, 0x66, 0x39,
  0x8b, 0x78, 0xb9, 0x39, 0xb7, 0x75, 0x4f, 0x39, 0x56, 0xa4, 0x8d, 0x39,
  0x5e, 0x8e, 0xdb, 0x39, 0xc9, 0xba, 0xad, 0x39, 0xf1, 0x1c, 0x6f, 0x39,
  0x8d, 0xa7, 0x3d, 0x39, 0x72, 0xf1, 0x48, 0x39, 0x70, 0xa3, 0x79, 0x39,
  0x7e, 0x48, 0x7b, 0x39, 0xb9, 0x2d, 0x25, 0x39, 0x72, 0x50, 0xa0, 0x39,
  0x89, 0x96, 0xb1, 0x39, 0x51, 0x41, 0xd9, 0x39, 0x15, 0x9e, 0x88, 0x39,
  0xa6, 0x9b, 0x7c, 0x39, 0x28, 0x5b, 0x1b, 0x39, 0xc0, 0x79, 0xf6, 0x39,
  0xe1, 0x09, 0xf1, 0x39, 0xf0, 0x88, 0x8e, 0x39, 0xf9, 0xeb, 0x5e, 0x39,
  0x5e, 0xa8, 0x74, 0x39, 0xd4, 0x26, 0x42, 0x39, 0x28, 0x00, 0x00, 0x00,
  0x73, 0x65, 0x71, 0x75, 0x65, 0x6e, 0x74, 0x69, 0x61, 0x6c, 0x2f, 0x63,
  0x6f, 0x6e, 0x76, 0x31, 0x64, 0x2f, 0x42, 0x69, 0x61, 0x73, 0x41, 0x64,
  0x64, 0x2f, 0x52, 0x65, 0x61, 0x64, 0x56, 0x61, 0x72, 0x69, 0x61, 0x62,
  0x6c, 0x65, 0x4f, 0x70, 0x00, 0x00, 0x00, 0x00, 0x01, 0x00, 0x00, 0x00,
  0x20, 0x00, 0x00, 0x00, 0x02, 0xf9, 0xff, 0xff, 0x00, 0x00, 0x00, 0x01,
  0x14, 0x00, 0x00, 0x00, 0xe8, 0x00, 0x00, 0x00, 0x0e, 0x00, 0x00, 0x00,
  0x00, 0x00, 0x00, 0x09, 0xfc, 0x00, 0x00, 0x00, 0xec, 0xf8, 0xff, 0xff,
  0x08, 0x00, 0x00, 0x00, 0x8c, 0x00, 0x00, 0x00, 0x10, 0x00, 0x00, 0x00,
  0x00, 0x00, 0x00, 0x00, 0x00, 0x00, 0x00, 0x00, 0x00, 0x00, 0x00, 0x00,
  0x00, 0x00, 0x00, 0x00, 0x00, 0x00, 0x00, 0x00, 0x00, 0x00, 0x00, 0x00,
  0x00, 0x00, 0x00, 0x00, 0x00, 0x00, 0x00, 0x00, 0x00, 0x00, 0x00, 0x00,
  0x00, 0x00, 0x00, 0x00, 0x00, 0x00, 0x00, 0x00, 0x00, 0x00, 0x00, 0x00,
  0x00, 0x00, 0x00, 0x00, 0x00, 0x00, 0x00, 0x00, 0x00, 0x00, 0x00, 0x00,
  0x00, 0x00, 0x00, 0x00, 0x00, 0x00, 0x00, 0x00, 0x00, 0x00, 0x00, 0x00,
  0x00, 0x00, 0x00, 0x00, 0x00, 0x00, 0x00, 0x00, 0x00, 0x00, 0x00, 0x00,
  0x00, 0x00, 0x00, 0x00, 0x00, 0x00, 0x00, 0x00, 0x00, 0x00, 0x00, 0x00,
  0x00, 0x00, 0x00, 0x00, 0x00, 0x00, 0x00, 0x00, 0x00, 0x00, 0x00, 0x00,
  0x00, 0x00, 0x00, 0x00, 0x00, 0x00, 0x00, 0x00, 0x00, 0x00, 0x00, 0x00,
  0x00, 0x00, 0x00, 0x00, 0x00, 0x00, 0x00, 0x00, 0x00, 0x00, 0x00, 0x00,
  0x10, 0x00, 0x00, 0x00, 0xf4, 0x7a, 0xd8, 0x3b, 0xe9, 0xe5, 0xcf, 0x3b,
  0xd2, 0xaa, 0xda, 0x3b, 0x6a, 0x13, 0xe9, 0x3b, 0x02, 0xde, 0xb4, 0x3b,
  0x08, 0xb7, 0x9f, 0x3b, 0x02, 0x33, 0xe4, 0x3b, 0x0a, 0x54, 0xa4, 0x3b,
  0xfd, 0xf3, 0x40, 0x3b, 0xa8, 0x3b, 0xc8, 0x3b, 0x05, 0x31, 0x8f, 0x3b,
  0x84, 0x81, 0xf4, 0x3b, 0xc3, 0xab, 0xea, 0x3b, 0xa8, 0x9c, 0xac, 0x3b,
  0x98, 0x7d, 0xc9, 0x3b, 0xcc, 0x8d, 0xcb, 0x3b, 0x1a, 0x00, 0x00, 0x00,
  0x73, 0x65, 0x71, 0x75, 0x65, 0x6e, 0x74, 0x69, 0x61, 0x6c, 0x2f, 0x63,
  0x6f, 0x6e, 0x76, 0x31, 0x64, 0x5f, 0x31, 0x2f, 0x43, 0x6f, 0x6e, 0x76,
  0x31, 0x44, 0x00, 0x00, 0x04, 0x00, 0x00, 0x00, 0x10, 0x00, 0x00, 0x00,
  0x01, 0x00, 0x00, 0x00, 0x03, 0x00, 0x00, 0x00, 0x20, 0x00, 0x00, 0x00,
  0x2a, 0xfa, 0xff, 0xff, 0x00, 0x00, 0x00, 0x01, 0x14, 0x00, 0x00, 0x00,
  0xe4, 0x00, 0x00, 0x00, 0x0d, 0x00, 0x00, 0x00, 0x00, 0x00, 0x00, 0x02,
  0x08, 0x01, 0x00, 0x00, 0x14, 0xfa, 0xff, 0xff, 0x08, 0x00, 0x00, 0x00,
  0x88, 0x00, 0x00, 0x00, 0x10, 0x00, 0x00, 0x00, 0x00, 0x00, 0x00, 0x00,
  0x00, 0x00, 0x00, 0x00, 0x00, 0x00, 0x00, 0x00, 0x00, 0x00, 0x00, 0x00,
  0x00, 0x00, 0x00, 0x00, 0x00, 0x00, 0x00, 0x00, 0x00, 0x00, 0x00, 0x00,
  0x00, 0x00, 0x00, 0x00, 0x00, 0x00, 0x00, 0x00, 0x00, 0x00, 0x00, 0x00,
  0x00, 0x00, 0x00, 0x00, 0x00, 0x00, 0x00, 0x00, 0x00, 0x00, 0x00, 0x00,
  0x00, 0x00, 0x00, 0x00, 0x00, 0x00, 0x00, 0x00, 0x00, 0x00, 0x00, 0x00,
  0x00, 0x00, 0x00, 0x00, 0x00, 0x00, 0x00, 0x00, 0x00, 0x00, 0x00, 0x00,
  0x00, 0x00, 0x00, 0x00, 0x00, 0x00, 0x00, 0x00, 0x00, 0x00, 0x00, 0x00,
  0x00, 0x00, 0x00, 0x00, 0x00, 0x00, 0x00, 0x00, 0x00, 0x00, 0x00, 0x00,
  0x00, 0x00, 0x00, 0x00, 0x00, 0x00, 0x00, 0x00, 0x00, 0x00, 0x00, 0x00,
  0x00, 0x00, 0x00, 0x00, 0x00, 0x00, 0x00, 0x00, 0x00, 0x00, 0x00, 0x00,
  0x00, 0x00, 0x00, 0x00, 0x10, 0x00, 0x00, 0x00, 0xcd, 0x38, 0x89, 0x39,
  0x26, 0xc8, 0x83, 0x39, 0xb0, 0x9b, 0x8a, 0x39, 0xce, 0xbd, 0x93, 0x39,
  0x8f, 0x4b, 0x65, 0x39, 0xb3, 0x7a, 0x4a, 0x39, 0x78, 0xa6, 0x90, 0x39,
  0xee, 0x53, 0x50, 0x39, 0xf7, 0x9d, 0xf4, 0x38, 0xa3, 0xd8, 0x7d, 0x39,
  0x16, 0x88, 0x35, 0x39, 0x98, 0xfc, 0x9a, 0x39, 0xa5, 0xc0, 0x94, 0x39,
  0x59, 0xd4, 0x5a, 0x39, 0xc7, 0x70, 0x7f, 0x39, 0x34, 0x07, 0x81, 0x39,
  0x2a, 0x00, 0x00, 0x00, 0x73, 0x65, 0x71, 0x75, 0x65, 0x6e, 0x74, 0x69,
  0x61, 0x6c, 0x2f, 0x63, 0x6f, 0x6e, 0x76, 0x31, 0x64, 0x5f, 0x31, 0x2f,
  0x42, 0x69, 0x61, 0x73, 0x41, 0x64, 0x64, 0x2f, 0x52, 0x65, 0x61, 0x64,
  0x56, 0x61, 0x72, 0x69, 0x61, 0x62, 0x6c, 0x65, 0x4f, 0x70, 0x00, 0x00,
  0x01, 0x00, 0x00, 0x00, 0x10, 0x00, 0x00, 0x00, 0x52, 0xfb, 0xff, 0xff,
  0x00, 0x00, 0x00, 0x01, 0x14, 0x00, 0x00, 0x00, 0x88, 0x00, 0x00, 0x00,
  0x0c, 0x00, 0x00, 0x00, 0x00, 0x00, 0x00, 0x09, 0x9c, 0x00, 0x00, 0x00,
  0x3c, 0xfb, 0xff, 0xff, 0x08, 0x00, 0x00, 0x00, 0x4c, 0x00, 0x00, 0x00,
  0x08, 0x00, 0x00, 0x00, 0x00, 0x00, 0x00, 0x00, 0x00, 0x00, 0x00, 0x00,
  0x00, 0x00, 0x00, 0x00, 0x00, 0x00, 0x00, 0x00, 0x00, 0x00, 0x00, 0x00,
  0x00, 0x00, 0x00, 0x00, 0x00, 0x00, 0x00, 0x00, 0x00, 0x00, 0x00, 0x00,
  0x00, 0x00, 0x00, 0x00, 0x00, 0x00, 0x00, 0x00, 0x00, 0x00, 0x00, 0x00,
  0x00, 0x00, 0x00, 0x00, 0x00, 0x00, 0x00, 0x00, 0x00, 0x00, 0x00, 0x00,
  0x00, 0x00, 0x00, 0x00, 0x00, 0x00, 0x00, 0x00, 0x00, 0x00, 0x00, 0x00,
  0x08, 0x00, 0x00, 0x00, 0xcc, 0x4a, 0xb9, 0x3b, 0xf2, 0xbe, 0xa2, 0x3b,
  0x8c, 0x7c, 0xaf, 0x3b, 0x44, 0xb2, 0x23, 0x3c, 0x7d, 0x27, 0xe6, 0x3b,
  0x77, 0x13, 0x94, 0x3b, 0xda, 0xf6, 0x94, 0x3b, 0xce, 0xea, 0x9c, 0x3b,
  0x1a, 0x00, 0x00, 0x00, 0x73, 0x65, 0x71, 0x75, 0x65, 0x6e, 0x74, 0x69,
  0x61, 0x6c, 0x2f, 0x63, 0x6f, 0x6e, 0x76, 0x31, 0x64, 0x5f, 0x32, 0x2f,
  0x43, 0x6f, 0x6e, 0x76, 0x31, 0x44, 0x00, 0x00, 0x04, 0x00, 0x00, 0x00,
  0x08, 0x00, 0x00, 0x00, 0x01, 0x00, 0x00, 0x00, 0x03, 0x00, 0x00, 0x00,
  0x10, 0x00, 0x00, 0x00, 0x1a, 0xfc, 0xff, 0xff, 0x00, 0x00, 0x00, 0x01,
  0x14, 0x00, 0x00, 0x00, 0x84, 0x00, 0x00, 0x00, 0x0b, 0x00, 0x00, 0x00,
  0x00, 0x00, 0x00, 0x02, 0xa8, 0x00, 0x00, 0x00, 0x04, 0xfc, 0xff, 0xff,
  0x08, 0x00, 0x00, 0x00, 0x48, 0x00, 0x00, 0x00, 0x08, 0x00, 0x00, 0x00,
  0x00, 0x00, 0x00, 0x00, 0x00, 0x00, 0x00, 0x00, 0x00, 0x00, 0x00, 0x00,
  0x00, 0x00, 0x00, 0x00, 0x00, 0x00, 0x00, 0x00, 0x00, 0x00, 0x00, 0x00,
  0x00, 0x00, 0x00, 0x00, 0x00, 0x00, 0x00, 0x00, 0x00, 0x00, 0x00, 0x00,
  0x00, 0x00, 0x00, 0x00, 0x00, 0x00, 0x00, 0x00, 0x00, 0x00, 0x00, 0x00,
  0x00, 0x00, 0x00, 0x00, 0x00, 0x00, 0x00, 0x00, 0x00, 0x00, 0x00, 0x00,
  0x00, 0x00, 0x00, 0x00, 0x08, 0x00, 0x00, 0x00, 0x5d, 0xa2, 0x91, 0x39,
  0xb6, 0xd3, 0x7f, 0x39, 0x61, 0xed, 0x89, 0x39, 0x19, 0xa9, 0x00, 0x3a,
  0xff, 0xe4, 0xb4, 0x39, 0x51, 0xc4, 0x68, 0x39, 0xc1, 0x29, 0x6a, 0x39,
  0x28, 0xaa, 0x76, 0x39, 0x2a, 0x00, 0x00, 0x00, 0x73, 0x65, 0x71, 0x75,
  0x65, 0x6e, 0x74, 0x69, 0x61, 0x6c, 0x2f, 0x63, 0x6f, 0x6e, 0x76, 0x31,
  0x64, 0x5f, 0x32, 0x2f, 0x42, 0x69, 0x61, 0x73, 0x41, 0x64, 0x64, 0x2f,
  0x52, 0x65, 0x61, 0x64, 0x56, 0x61, 0x72, 0x69, 0x61, 0x62, 0x6c, 0x65,
  0x4f, 0x70, 0x00, 0x00, 0x01, 0x00, 0x00, 0x00, 0x08, 0x00, 0x00, 0x00,
  0xe2, 0xfc, 0xff, 0xff, 0x00, 0x00, 0x00, 0x01, 0x14, 0x00, 0x00, 0x00,
  0x30, 0x00, 0x00, 0x00, 0x0a, 0x00, 0x00, 0x00, 0x00, 0x00, 0x00, 0x09,
  0x44, 0x00, 0x00, 0x00, 0xcc, 0xfc, 0xff, 0xff, 0x08, 0x00, 0x00, 0x00,
  0x10, 0x00, 0x00, 0x00, 0x01, 0x00, 0x00, 0x00, 0x00, 0x00, 0x00, 0x00,
  0x00, 0x00, 0x00, 0x00, 0x01, 0x00, 0x00, 0x00, 0xd6, 0x94, 0x4b, 0x3c,
  0x18, 0x00, 0x00, 0x00, 0x73, 0x65, 0x71, 0x75, 0x65, 0x6e, 0x74, 0x69,
  0x61, 0x6c, 0x2f, 0x79, 0x5f, 0x70, 0x72, 0x65, 0x64, 0x2f, 0x4d, 0x61,
  0x74, 0x4d, 0x75, 0x6c, 0x00, 0x00, 0x00, 0x00, 0x02, 0x00, 0x00, 0x00,
  0x06, 0x00, 0x00, 0x00, 0x38, 0x00, 0x00, 0x00, 0x4a, 0xfd, 0xff, 0xff,
  0x00, 0x00, 0x00, 0x01, 0x14, 0x00, 0x00, 0x00, 0x34, 0x00, 0x00, 0x00,
  0x09, 0x00, 0x00, 0x00, 0x00, 0x00, 0x00, 0x02, 0x58, 0x00, 0x00, 0x00,
  0x34, 0xfd, 0xff, 0xff, 0x08, 0x00, 0x00, 0x00, 0x14, 0x00, 0x00, 0x00,
  0x01, 0x00, 0x00, 0x00, 0x00, 0x00, 0x00, 0x00, 0x00, 0x00, 0x00, 0x00,
  0x00, 0x00, 0x00, 0x00, 0x01, 0x00, 0x00, 0x00, 0x55, 0x15, 0x6a, 0x3a,
  0x28, 0x00, 0x00, 0x00, 0x73, 0x65, 0x71, 0x75, 0x65, 0x6e, 0x74, 0x69,
  0x61, 0x6c, 0x2f, 0x79, 0x5f, 0x70, 0x72, 0x65, 0x64, 0x2f, 0x42, 0x69,
  0x61, 0x73, 0x41, 0x64, 0x64, 0x2f, 0x52, 0x65, 0x61, 0x64, 0x56, 0x61,
  0x72, 0x69, 0x61, 0x62, 0x6c, 0x65, 0x4f, 0x70, 0x00, 0x00, 0x00, 0x00,
  0x01, 0x00, 0x00, 0x00, 0x06, 0x00, 0x00, 0x00, 0xc2, 0xfd, 0xff, 0xff,
  0x00, 0x00, 0x00, 0x01, 0x14, 0x00, 0x00, 0x00, 0x14, 0x00, 0x00, 0x00,
  0x08, 0x00, 0x00, 0x00, 0x00, 0x00, 0x00, 0x02, 0x28, 0x00, 0x00, 0x00,
  0x18, 0xfe, 0xff, 0xff, 0x18, 0x00, 0x00, 0x00, 0x73, 0x65, 0x71, 0x75,
  0x65, 0x6e, 0x74, 0x69, 0x61, 0x6c, 0x2f, 0x66, 0x6c, 0x61, 0x74, 0x74,
  0x65, 0x6e, 0x2f, 0x43, 0x6f, 0x6e, 0x73, 0x74, 0x00, 0x00, 0x00, 0x00,
  0x01, 0x00, 0x00, 0x00, 0x02, 0x00, 0x00, 0x00, 0x0a, 0xfe, 0xff, 0xff,
  0x00, 0x00, 0x00, 0x01, 0x14, 0x00, 0x00, 0x00, 0x14, 0x00, 0x00, 0x00,
  0x07, 0x00, 0x00, 0x00, 0x00, 0x00, 0x00, 0x02, 0x34, 0x00, 0x00, 0x00,
  0x60, 0xfe, 0xff, 0xff, 0x25, 0x00, 0x00, 0x00, 0x73, 0x65, 0x71, 0x75,
  0x65, 0x6e, 0x74, 0x69, 0x61, 0x6c, 0x2f, 0x6d, 0x61, 0x78, 0x5f, 0x70,
  0x6f, 0x6f, 0x6c, 0x69, 0x6e, 0x67, 0x31, 0x64, 0x5f, 0x32, 0x2f, 0x45,
  0x78, 0x70, 0x61, 0x6e, 0x64, 0x44, 0x69, 0x6d, 0x73, 0x00, 0x00, 0x00,
  0x01, 0x00, 0x00, 0x00, 0x04, 0x00, 0x00, 0x00, 0x5e, 0xfe, 0xff, 0xff,
  0x00, 0x00, 0x00, 0x01, 0x14, 0x00, 0x00, 0x00, 0x14, 0x00, 0x00, 0x00,
  0x06, 0x00, 0x00, 0x00, 0x00, 0x00, 0x00, 0x02, 0x34, 0x00, 0x00, 0x00,
  0xb4, 0xfe, 0xff, 0xff, 0x25, 0x00, 0x00, 0x00, 0x73, 0x65, 0x71, 0x75,
  0x65, 0x6e, 0x74, 0x69, 0x61, 0x6c, 0x2f, 0x63, 0x6f, 0x6e, 0x76, 0x31,
  0x64, 0x5f, 0x32, 0x2f, 0x43, 0x6f, 0x6e, 0x76, 0x31, 0x44, 0x2f, 0x45,
  0x78, 0x70, 0x61, 0x6e, 0x64, 0x44, 0x69, 0x6d, 0x73, 0x00, 0x00, 0x00,
  0x01, 0x00, 0x00, 0x00, 0x04, 0x00, 0x00, 0x00, 0xb2, 0xfe, 0xff, 0xff,
  0x00, 0x00, 0x00, 0x01, 0x14, 0x00, 0x00, 0x00, 0x14, 0x00, 0x00, 0x00,
  0x05, 0x00, 0x00, 0x00, 0x00, 0x00, 0x00, 0x02, 0x34, 0x00, 0x00, 0x00,
  0x08, 0xff, 0xff, 0xff, 0x25, 0x00, 0x00, 0x00, 0x73, 0x65, 0x71, 0x75,
  0x65, 0x6e, 0x74, 0x69, 0x61, 0x6c, 0x2f, 0x6d, 0x61, 0x78, 0x5f, 0x70,
  0x6f, 0x6f, 0x6c, 0x69, 0x6e, 0x67, 0x31, 0x64, 0x5f, 0x31, 0x2f, 0x45,
  0x78, 0x70, 0x61, 0x6e, 0x64, 0x44, 0x69, 0x6d, 0x73, 0x00, 0x00, 0x00,
  0x01, 0x00, 0x00, 0x00, 0x04, 0x00, 0x00, 0x00, 0x06, 0xff, 0xff, 0xff,
  0x00, 0x00, 0x00, 0x01, 0x14, 0x00, 0x00, 0x00, 0x14, 0x00, 0x00, 0x00,
  0x04, 0x00, 0x00, 0x00, 0x00, 0x00, 0x00, 0x02, 0x34, 0x00, 0x00, 0x00,
  0x5c, 0xff, 0xff, 0xff, 0x25, 0x00, 0x00, 0x00, 0x73, 0x65, 0x71, 0x75,
  0x65, 0x6e, 0x74, 0x69, 0x61, 0x6c, 0x2f, 0x63, 0x6f, 0x6e, 0x76, 0x31,
  0x64, 0x5f, 0x31, 0x2f, 0x43, 0x6f, 0x6e, 0x76, 0x31, 0x44, 0x2f, 0x45,
  0x78, 0x70, 0x61, 0x6e, 0x64, 0x44, 0x69, 0x6d, 0x73, 0x00, 0x00, 0x00,
  0x01, 0x00, 0x00, 0x00, 0x04, 0x00, 0x00, 0x00, 0x5a, 0xff, 0xff, 0xff,
  0x00, 0x00, 0x00, 0x01, 0x14, 0x00, 0x00, 0x00, 0x14, 0x00, 0x00, 0x00,
  0x03, 0x00, 0x00, 0x00, 0x00, 0x00, 0x00, 0x02, 0x30, 0x00, 0x00, 0x00,
  0xb0, 0xff, 0xff, 0xff, 0x23, 0x00, 0x00, 0x00, 0x73, 0x65, 0x71, 0x75,
  0x65, 0x6e, 0x74, 0x69, 0x61, 0x6c, 0x2f, 0x6d, 0x61, 0x78, 0x5f, 0x70,
  0x6f, 0x6f, 0x6c, 0x69, 0x6e, 0x67, 0x31, 0x64, 0x2f, 0x45, 0x78, 0x70,
  0x61, 0x6e, 0x64, 0x44, 0x69, 0x6d, 0x73, 0x00, 0x01, 0x00, 0x00, 0x00,
  0x04, 0x00, 0x00, 0x00, 0xaa, 0xff, 0xff, 0xff, 0x00, 0x00, 0x00, 0x01,
  0x18, 0x00, 0x00, 0x00, 0x18, 0x00, 0x00, 0x00, 0x02, 0x00, 0x00, 0x00,
  0x00, 0x00, 0x00, 0x02, 0x34, 0x00, 0x00, 0x00, 0x04, 0x00, 0x04, 0x00,
  0x04, 0x00, 0x00, 0x00, 0x23, 0x00, 0x00, 0x00, 0x73, 0x65, 0x71, 0x75,
  0x65, 0x6e, 0x74, 0x69, 0x61, 0x6c, 0x2f, 0x63, 0x6f, 0x6e, 0x76, 0x31,
  0x64, 0x2f, 0x43, 0x6f, 0x6e, 0x76, 0x31, 0x44, 0x2f, 0x45, 0x78, 0x70,
  0x61, 0x6e, 0x64, 0x44, 0x69, 0x6d, 0x73, 0x00, 0x01, 0x00, 0x00, 0x00,
  0x04, 0x00, 0x00, 0x00, 0x00, 0x00, 0x16, 0x00, 0x1c, 0x00, 0x18, 0x00,
  0x17, 0x00, 0x10, 0x00, 0x0c, 0x00, 0x08, 0x00, 0x00, 0x00, 0x00, 0x00,
  0x00, 0x00, 0x07, 0x00, 0x16, 0x00, 0x00, 0x00, 0x00, 0x00, 0x00, 0x01,
  0x20, 0x00, 0x00, 0x00, 0x3c, 0x00, 0x00, 0x00, 0x01, 0x00, 0x00, 0x00,
  0x00, 0x00, 0x00, 0x09, 0x48, 0x00, 0x00, 0x00, 0x0c, 0x00, 0x0c, 0x00,
  0x00, 0x00, 0x00, 0x00, 0x08, 0x00, 0x04, 0x00, 0x0c, 0x00, 0x00, 0x00,
  0x08, 0x00, 0x00, 0x00, 0x10, 0x00, 0x00, 0x00, 0x01, 0x00, 0x00, 0x00,
  0x00, 0x00, 0x00, 0x00, 0x00, 0x00, 0x00, 0x00, 0x01, 0x00, 0x00, 0x00,
  0xc7, 0xa1, 0x51, 0x3d, 0x13, 0x00, 0x00, 0x00, 0x73, 0x65, 0x72, 0x76,
  0x69, 0x6e, 0x67, 0x5f, 0x64, 0x65, 0x66, 0x61, 0x75, 0x6c, 0x74, 0x5f,
  0x78, 0x3a, 0x30, 0x00, 0x02, 0x00, 0x00, 0x00, 0x01, 0x00, 0x00, 0x00,
  0x8a, 0x02, 0x00, 0x00, 0x05, 0x00, 0x00, 0x00, 0x6c, 0x00, 0x00, 0x00,
  0x4c, 0x00, 0x00, 0x00, 0x2c, 0x00, 0x00, 0x00, 0x18, 0x00, 0x00, 0x00,
  0x04, 0x00, 0x00, 0x00, 0xd0, 0xff, 0xff, 0xff, 0x19, 0x00, 0x00, 0x00,
  0x02, 0x00, 0x00, 0x00, 0x00, 0x00, 0x00, 0x19, 0xe0, 0xff, 0xff, 0xff,
  0x09, 0x00, 0x00, 0x00, 0x04, 0x00, 0x00, 0x00, 0x00, 0x00, 0x00, 0x09,
  0xf0, 0xff, 0xff, 0xff, 0x11, 0x00, 0x00, 0x00, 0x02, 0x00, 0x00, 0x00,
  0x00, 0x00, 0x00, 0x11, 0x0c, 0x00, 0x10, 0x00, 0x0f, 0x00, 0x00, 0x00,
  0x08, 0x00, 0x04, 0x00, 0x0c, 0x00, 0x00, 0x00, 0x03, 0x00, 0x00, 0x00,
  0x03, 0x00, 0x00, 0x00, 0x00, 0x00, 0x00, 0x03, 0x0c, 0x00, 0x0c, 0x00,
  0x0b, 0x00, 0x00, 0x00, 0x00, 0x00, 0x04, 0x00, 0x0c, 0x00, 0x00, 0x00,
  0x16, 0x00, 0x00, 0x00, 0x00, 0x00, 0x00, 0x16
};
unsigned int tflite_learn_923005_3_len = 10904;
#endif // _EI_CLASSIFIER_TFLITE_LEARN_923005_3_H_
